<unk>	0
<s>	0
</s>	0
▁t	-0
he	-1
▁a	-2
in	-3
▁w	-4
▁s	-5
re	-6
▁o	-7
▁the	-8
er	-9
ou	-10
nd	-11
▁m	-12
ha	-13
ed	-14
▁b	-15
en	-16
it	-17
on	-18
is	-19
▁c	-20
▁to	-21
▁f	-22
▁of	-23
▁and	-24
ing	-25
▁d	-26
or	-27
▁p	-28
▁he	-29
at	-30
es	-31
▁in	-32
ll	-33
ar	-34
▁I	-35
as	-36
▁n	-37
▁h	-38
an	-39
le	-40
▁ha	-41
▁be	-42
om	-43
▁e	-44
ot	-45
▁l	-46
hat	-47
ce	-48
ion	-49
▁y	-50
ut	-51
▁“	-52
▁re	-53
ly	-54
st	-55
ent	-56
ve	-57
▁was	-58
▁you	-59
se	-60
▁her	-61
▁g	-62
ow	-63
ld	-64
et	-65
ver	-66
ch	-67
im	-68
id	-69
gh	-70
▁that	-71
▁th	-72
ct	-73
▁it	-74
▁my	-75
li	-76
▁not	-77
ith	-78
▁on	-79
▁as	-80
▁wh	-81
▁with	-82
▁for	-83
ir	-84
▁u	-85
▁M	-86
ay	-87
▁she	-88
her	-89
ould	-90
ri	-91
▁had	-92
al	-93
ght	-94
ur	-95
ab	-96
▁an	-97
ro	-98
▁me	-99
▁we	-100
▁his	-101
ter	-102
ad	-103
▁at	-104
▁su	-105
▁T	-106
ation	-107
ect	-108
ess	-109
▁con	-110
ain	-111
▁sa	-112
ill	-113
▁so	-114
red	-115
▁de	-116
pp	-117
▁is	-118
▁but	-119
▁A	-120
▁whi	-121
.”	-122
▁have	-123
▁B	-124
our	-125
if	-126
▁se	-127
ic	-128
▁by	-129
▁ex	-130
oo	-131
▁him	-132
ore	-133
very	-134
▁all	-135
▁which	-136
▁st	-137
ge	-138
▁Mr	-139
qu	-140
ke	-141
am	-142
rom	-143
lf	-144
ust	-145
▁fe	-146
▁H	-147
▁ne	-148
▁The	-149
▁L	-150
▁C	-151
▁E	-152
▁said	-153
▁S	-154
▁whe	-155
▁were	-156
▁this	-157
▁from	-158
▁com	-159
▁k	-160
res	-161
▁v	-162
,”	-163
est	-164
il	-165
▁W	-166
self	-167
ard	-168
eth	-169
▁dis	-170
ul	-171
all	-172
th	-173
▁un	-174
▁or	-175
▁sh	-176
em	-177
ra	-178
▁your	-179
▁do	-180
▁could	-181
▁no	-182
▁le	-183
▁D	-184
able	-185
ome	-186
▁they	-187
▁who	-188
liz	-189
▁been	-190
ate	-191
ight	-192
end	-193
os	-194
▁Eliz	-195
▁al	-196
nt	-197
ous	-198
▁man	-199
▁would	-200
art	-201
ant	-202
abeth	-203
▁Elizabeth	-204
▁sp	-205
ure	-206
▁_	-207
▁wor	-208
ved	-209
▁am	-210
▁ag	-211
han	-212
ive	-213
▁them	-214
ind	-215
▁kn	-216
us	-217
▁any	-218
▁very	-219
▁per	-220
▁when	-221
op	-222
ity	-223
▁int	-224
and	-225
ort	-226
▁pro	-227
reat	-228
▁will	-229
itt	-230
ong	-231
▁their	-232
▁af	-233
ound	-234
ance	-235
one	-236
▁are	-237
ther	-238
▁what	-239
▁G	-240
ea	-241
ol	-242
▁r	-243
ence	-244
out	-245
▁im	-246
▁ab	-247
ost	-248
▁ac	-249
ough	-250
ment	-251
cy	-252
▁P	-253
ject	-254
▁can	-255
▁li	-256
ven	-257
▁know	-258
▁more	-259
▁one	-260
ast	-261
ather	-262
el	-263
ked	-264
▁j	-265
▁ad	-266
fore	-267
pt	-268
▁up	-269
▁there	-270
ood	-271
--	-272
age	-273
▁en	-274
ber	-275
▁other	-276
▁such	-277
▁than	-278
ag	-279
ine	-280
▁qu	-281
ry	-282
hed	-283
▁if	-284
▁app	-285
▁exp	-286
ond	-287
la	-288
ish	-289
oll	-290
um	-291
uch	-292
hi	-293
wn	-294
un	-295
ck	-296
ist	-297
ress	-298
au	-299
▁should	-300
ered	-301
ought	-302
▁comp	-303
▁must	-304
ers	-305
▁did	-306
ud	-307
king	-308
▁how	-309
▁F	-310
?”	-311
urn	-312
ake	-313
▁rep	-314
ite	-315
arcy	-316
▁much	-317
▁some	-318
▁Darcy	-319
ions	-320
ness	-321
▁again	-322
iss	-323
ings	-324
other	-325
ert	-326
▁tim	-327
▁He	-328
ice	-329
▁But	-330
▁sha	-331
▁every	-332
▁des	-333
lice	-334
ear	-335
▁part	-336
▁before	-337
▁She	-338
ose	-339
▁J	-340
ally	-341
ies	-342
ily	-343
are	-344
▁now	-345
▁Alice	-346
▁rem	-347
!”	-348
▁att	-349
▁ob	-350
ame	-351
ink	-352
▁only	-353
ig	-354
▁see	-355
You	-356
ble	-357
ove	-358
way	-359
ittle	-360
ount	-361
ley	-362
od	-363
▁ar	-364
fect	-365
ass	-366
ady	-367
ated	-368
▁little	-369
ving	-370
▁fri	-371
enn	-372
▁might	-373
▁time	-374
▁loo	-375
▁great	-376
ci	-377
ree	-378
ie	-379
▁us	-380
▁imp	-381
▁Mrs	-382
leas	-383
ere	-384
ennet	-385
▁happ	-386
▁Bennet	-387
▁may	-388
▁feel	-389
for	-390
▁then	-391
ister	-392
ire	-393
▁It	-394
▁thought	-395
▁day	-396
▁into	-397
▁own	-398
▁cont	-399
irst	-400
ng	-401
▁ind	-402
▁res	-403
▁out	-404
▁sister	-405
▁herself	-406
led	-407
own	-408
▁never	-409
ide	-410
▁pre	-411
▁friend	-412
ful	-413
▁ent	-414
ep	-415
ru	-416
ane	-417
ell	-418
▁fa	-419
▁has	-420
▁after	-421
ced	-422
ward	-423
▁soon	-424
ingley	-425
ks	-426
▁too	-427
▁Bingley	-428
▁cons	-429
ary	-430
▁go	-431
▁Miss	-432
tter	-433
▁first	-434
ick	-435
ise	-436
▁pleas	-437
▁off	-438
▁over	-439
▁its	-440
▁most	-441
▁say	-442
▁think	-443
▁Jane	-444
ried	-445
▁like	-446
▁acc	-447
ever	-448
▁being	-449
hing	-450
uten	-451
▁mad	-452
▁even	-453
▁N	-454
▁ro	-455
ations	-456
▁about	-457
▁shall	-458
▁O	-459
▁br	-460
me	-461
ouse	-462
▁mar	-463
berg	-464
▁long	-465
utenberg	-466
oss	-467
▁well	-468
▁hop	-469
▁ret	-470
▁beg	-471
▁father	-472
▁tw	-473
▁pr	-474
▁und	-475
lie	-476
▁gr	-477
▁sc	-478
▁good	-479
▁inc	-480
▁dear	-481
▁tr	-482
ak	-483
cc	-484
▁ass	-485
ach	-486
▁dist	-487
▁pass	-488
ife	-489
roject	-490
▁Gutenberg	-491
ham	-492
ins	-493
▁without	-494
ps	-495
ue	-496
ning	-497
right	-498
▁end	-499
▁ever	-500
ied	-501
ible	-502
▁myself	-503
oy	-504
ious	-505
▁make	-506
▁Project	-507
▁mis	-508
▁cha	-509
oin	-510
▁ey	-511
▁add	-512
▁made	-513
▁1	-514
▁bec	-515
lt	-516
ave	-517
hen	-518
▁nothing	-519
med	-520
wards	-521
iness	-522
ertain	-523
▁You	-524
▁though	-525
ff	-526
lect	-527
▁our	-528
▁down	-529
ces	-530
cei	-531
ott	-532
ves	-533
less	-534
▁these	-535
▁young	-536
ened	-537
▁belie	-538
▁upon	-539
▁return	-540
ne	-541
▁R	-542
▁fam	-543
ia	-544
▁Th	-545
▁supp	-546
▁under	-547
ited	-548
▁rec	-549
▁saw	-550
ens	-551
per	-552
▁pla	-553
▁ref	-554
▁seem	-555
▁count	-556
▁felt	-557
▁pres	-558
▁[	-559
light	-560
▁disc	-561
iff	-562
ished	-563
▁away	-564
▁pers	-565
ention	-566
▁way	-567
▁love	-568
▁yet	-569
▁found	-570
but	-571
▁two	-572
erm	-573
not	-574
▁op	-575
▁many	-576
ickham	-577
▁where	-578
eed	-579
▁mann	-580
▁work	-581
▁sm	-582
aught	-583
ged	-584
ret	-585
lied	-586
▁Coll	-587
▁Collins	-588
▁Wickham	-589
ds	-590
ched	-591
thing	-592
▁hand	-593
▁K	-594
ull	-595
▁sat	-596
▁kind	-597
▁last	-598
▁mean	-599
iz	-600
▁wr	-601
ign	-602
ause	-603
ath	-604
▁My	-605
▁occ	-606
▁som	-607
▁eyes	-608
ted	-609
▁just	-610
▁pl	-611
▁poss	-612
ang	-613
▁wal	-614
▁life	-615
▁cl	-616
vers	-617
▁inst	-618
▁family	-619
▁cour	-620
▁hope	-621
ery	-622
▁ear	-623
owed	-624
▁sub	-625
▁house	-626
old	-627
▁Lady	-628
▁certain	-629
we	-630
▁Ly	-631
pect	-632
▁heard	-633
▁letter	-634
▁came	-635
▁affect	-636
▁himself	-637
uc	-638
dia	-639
erv	-640
▁Cha	-641
▁nat	-642
▁reg	-643
▁form	-644
ration	-645
▁gl	-646
ense	-647
▁mom	-648
▁Lydia	-649
▁moment	-650
▁And	-651
▁went	-652
▁cannot	-653
TM	-654
ark	-655
ene	-656
atter	-657
▁whom	-658
▁turn	-659
urp	-660
ener	-661
ether	-662
▁mother	-663
▁feelings	-664
hes	-665
▁har	-666
▁conf	-667
iv	-668
▁GutenbergTM	-669
igh	-670
cept	-671
▁tal	-672
ither	-673
▁chi	-674
llust	-675
▁comm	-676
▁however	-677
ained	-678
pl	-679
fort	-680
ways	-681
▁mind	-682
▁rest	-683
ressed	-684
ten	-685
icul	-686
ction	-687
▁give	-688
▁same	-689
Illust	-690
ceived	-691
▁towards	-692
Illustration	-693
lic	-694
ured	-695
▁diff	-696
▁room	-697
▁In	-698
vour	-699
ty	-700
ears	-701
▁set	-702
▁wish	-703
▁always	-704
▁vis	-705
▁They	-706
▁replied	-707
bour	-708
ined	-709
▁str	-710
▁foll	-711
▁those	-712
sw	-713
▁ev	-714
ently	-715
▁quite	-716
▁pa	-717
▁still	-718
xt	-719
ory	-720
ract	-721
▁mor	-722
▁thr	-723
▁creat	-724
▁heart	-725
▁dre	-726
ition	-727
▁call	-728
▁often	-729
ody	-730
▁answ	-731
▁consid	-732
▁contin	-733
unt	-734
▁If	-735
▁daught	-736
▁looked	-737
The	-738
▁exc	-739
▁gent	-740
ft	-741
▁bl	-742
ired	-743
oice	-744
▁few	-745
▁unc	-746
▁This	-747
▁come	-748
▁(	-749
▁ch	-750
▁indeed	-751
ued	-752
▁po	-753
▁ra	-754
▁read	-755
▁place	-756
opy	-757
,--	-758
▁dep	-759
▁conc	-760
▁began	-761
▁while	-762
so	-763
ised	-764
▁spea	-765
ason	-766
▁chan	-767
▁near	-768
▁sure	-769
▁enough	-770
▁expect	-771
▁lo	-772
▁adv	-773
ility	-774
▁hear	-775
aut	-776
▁rel	-777
▁pe	-778
▁det	-779
▁em	-780
ting	-781
▁acqu	-782
▁present	-783
▁here	-784
▁appear	-785
most	-786
▁wond	-787
▁delight	-788
ap	-789
▁gi	-790
▁gu	-791
form	-792
erable	-793
▁inter	-794
▁world	-795
▁passed	-796
▁pleasure	-797
▁affection	-798
its	-799
▁sec	-800
▁gener	-801
▁night	-802
▁Cather	-803
▁Catherine	-804
ures	-805
▁get	-806
▁gentle	-807
ook	-808
▁dec	-809
▁hour	-810
▁less	-811
▁subject	-812
air	-813
orr	-814
riage	-815
▁When	-816
▁find	-817
▁manner	-818
▁seemed	-819
▁believe	-820
ew	-821
▁id	-822
▁ill	-823
ately	-824
▁friends	-825
ase	-826
haps	-827
ince	-828
▁happy	-829
ack	-830
irl	-831
ceed	-832
ember	-833
▁hard	-834
▁cried	-835
▁better	-836
ock	-837
▁head	-838
▁whole	-839
▁object	-840
nce	-841
ude	-842
▁mon	-843
▁child	-844
▁does	-845
▁want	-846
oub	-847
ron	-848
ual	-849
ared	-850
body	-851
that	-852
▁hum	-853
▁new	-854
uring	-855
▁girl	-856
▁another	-857
ph	-858
▁fl	-859
ield	-860
imes	-861
ended	-862
ER	-863
ety	-864
▁che	-865
▁far	-866
▁min	-867
▁morning	-868
▁happiness	-869
ict	-870
oke	-871
▁ext	-872
▁nor	-873
ribut	-874
▁beaut	-875
▁voice	-876
▁having	-877
▁person	-878
▁U	-879
▁Y	-880
▁adm	-881
▁suff	-882
ial	-883
▁1.	-884
ably	-885
empt	-886
illi	-887
osed	-888
▁left	-889
▁once	-890
▁spir	-891
▁take	-892
ors	-893
ents	-894
▁done	-895
▁reason	-896
▁eng	-897
▁sil	-898
▁wom	-899
▁half	-900
man	-901
▁As	-902
▁ke	-903
▁best	-904
▁took	-905
illiam	-906
hy	-907
ower	-908
▁also	-909
▁seen	-910
▁rather	-911
▁fi	-912
▁obs	-913
▁next	-914
▁sens	-915
▁tell	-916
▁whose	-917
▁almost	-918
▁acquain	-919
▁country	-920
▁underst	-921
isf	-922
▁fear	-923
▁fort	-924
ething	-925
▁since	-926
▁brother	-927
▁convers	-928
urs	-929
aking	-930
eared	-931
▁prom	-932
▁surp	-933
▁till	-934
▁therefore	-935
It	-936
▁His	-937
ments	-938
▁Long	-939
▁dest	-940
▁resol	-941
▁works	-942
▁really	-943
▁wonder	-944
▁express	-945
▁through	-946
vi	-947
ail	-948
ord	-949
urd	-950
ollect	-951
▁visit	-952
oth	-953
▁inv	-954
icular	-955
the	-956
aken	-957
ates	-958
▁cond	-959
etimes	-960
▁anything	-961
▁something	-962
zy	-963
iner	-964
▁wat	-965
▁back	-966
▁hands	-967
▁surpr	-968
▁words	-969
up	-970
▁cr	-971
▁How	-972
▁bet	-973
▁knew	-974
▁look	-975
▁We	-976
oint	-977
▁don	-978
▁ins	-979
▁tre	-980
▁Gard	-981
▁copy	-982
▁each	-983
▁satisf	-984
du	-985
te	-986
▁wa	-987
▁car	-988
owing	-989
▁arri	-990
▁dire	-991
▁added	-992
▁particular	-993
ute	-994
medi	-995
▁Her	-996
▁use	-997
erest	-998
▁gave	-999
▁idea	-1000
▁list	-1001
▁el	-1002
▁opp	-1003
▁answer	-1004
▁perhaps	-1005
▁daughter	-1006
HA	-1007
bit	-1008
cri	-1009
cess	-1010
izzy	-1011
ling	-1012
▁char	-1013
▁speak	-1014
▁three	-1015
▁act	-1016
▁old	-1017
▁aunt	-1018
▁doub	-1019
▁term	-1020
▁endea	-1021
▁differe	-1022
Oh	-1023
ween	-1024
ances	-1025
▁home	-1026
▁poor	-1027
gether	-1028
▁among	-1029
▁compan	-1030
▁course	-1031
▁immedi	-1032
▁appeared	-1033
dd	-1034
▁la	-1035
▁For	-1036
▁inf	-1037
▁incl	-1038
▁town	-1039
▁There	-1040
▁means	-1041
ec	-1042
rl	-1043
oud	-1044
▁both	-1045
▁pain	-1046
▁prev	-1047
▁others	-1048
▁charact	-1049
▁conversation	-1050
irc	-1051
▁St	-1052
▁days	-1053
▁Charl	-1054
▁Gardiner	-1055
▁certainly	-1056
▁continued	-1057
ren	-1058
ement	-1059
▁circ	-1060
▁door	-1061
▁prop	-1062
▁prov	-1063
▁death	-1064
▁least	-1065
▁perfect	-1066
▁received	-1067
ern	-1068
ully	-1069
▁put	-1070
itted	-1071
▁disp	-1072
▁imag	-1073
▁sent	-1074
▁elect	-1075
▁going	-1076
▁leave	-1077
▁quest	-1078
▁reflect	-1079
ef	-1080
▁told	-1081
overed	-1082
▁right	-1083
▁between	-1084
▁attention	-1085
uri	-1086
oved	-1087
▁agree	-1088
▁terms	-1089
▁thing	-1090
▁favour	-1091
▁because	-1092
sel	-1093
itude	-1094
▁desp	-1095
▁forg	-1096
▁high	-1097
▁power	-1098
▁woman	-1099
▁consider	-1100
ac	-1101
ank	-1102
shi	-1103
▁Luc	-1104
bourn	-1105
▁gone	-1106
▁wind	-1107
▁years	-1108
▁hardly	-1109
▁evening	-1110
▁Longbourn	-1111
And	-1112
ton	-1113
otte	-1114
ster	-1115
▁eas	-1116
▁lad	-1117
ronic	-1118
▁care	-1119
▁live	-1120
▁called	-1121
▁yourself	-1122
▁Charlotte	-1123
▁electronic	-1124
PT	-1125
aged	-1126
ught	-1127
▁CHA	-1128
▁men	-1129
▁par	-1130
asion	-1131
ating	-1132
▁What	-1133
▁cous	-1134
▁Lucas	-1135
▁spoke	-1136
▁character	-1137
act	-1138
laim	-1139
ople	-1140
▁appro	-1141
▁short	-1142
▁interest	-1143
uth	-1144
ided	-1145
used	-1146
▁abs	-1147
▁requ	-1148
▁Lizzy	-1149
itation	-1150
▁ladies	-1151
▁against	-1152
▁understand	-1153
▁Q	-1154
But	-1155
mon	-1156
ney	-1157
PTER	-1158
▁hel	-1159
▁hon	-1160
▁sit	-1161
▁expl	-1162
▁side	-1163
▁determ	-1164
▁turned	-1165
▁CHAPTER	-1166
▁together	-1167
und	-1168
land	-1169
▁bus	-1170
▁let	-1171
erved	-1172
iting	-1173
ledge	-1174
▁meet	-1175
▁opin	-1176
▁mention	-1177
▁respect	-1178
▁*	-1179
app	-1180
ros	-1181
tle	-1182
ult	-1183
use	-1184
▁ang	-1185
▁lar	-1186
▁cott	-1187
▁alone	-1188
▁given	-1189
▁either	-1190
▁whether	-1191
▁marriage	-1192
une	-1193
▁equ	-1194
▁month	-1195
▁sever	-1196
▁direct	-1197
▁people	-1198
▁things	-1199
▁possess	-1200
▁sometimes	-1201
▁‘	-1202
arm	-1203
val	-1204
pter	-1205
▁air	-1206
ingly	-1207
ually	-1208
▁help	-1209
▁doubt	-1210
▁became	-1211
▁sisters	-1212
My	-1213
ons	-1214
▁inqu	-1215
▁join	-1216
▁lear	-1217
▁word	-1218
▁remain	-1219
▁Chapter	-1220
▁counten	-1221
▁entered	-1222
▁returned	-1223
▁different	-1224
dden	-1225
▁anx	-1226
▁gra	-1227
field	-1228
iment	-1229
▁play	-1230
▁thus	-1231
▁uncle	-1232
▁within	-1233
ici	-1234
now	-1235
▁At	-1236
▁Que	-1237
▁civ	-1238
antly	-1239
ination	-1240
▁circum	-1241
▁during	-1242
▁necess	-1243
▁sudden	-1244
▁account	-1245
ile	-1246
ached	-1247
ceive	-1248
fully	-1249
▁beha	-1250
▁fell	-1251
▁full	-1252
▁murd	-1253
▁wret	-1254
▁Queen	-1255
▁light	-1256
▁persu	-1257
▁small	-1258
▁nature	-1259
▁William	-1260
▁several	-1261
▁occasion	-1262
What	-1263
▁Tur	-1264
▁bre	-1265
anger	-1266
▁agre	-1267
▁deep	-1268
▁cousin	-1269
▁regard	-1270
ib	-1271
ple	-1272
▁Ar	-1273
▁sy	-1274
itty	-1275
nect	-1276
ross	-1277
▁est	-1278
▁tri	-1279
▁bene	-1280
▁hast	-1281
▁asked	-1282
▁human	-1283
▁Nether	-1284
oundation	-1285
▁circumst	-1286
▁possible	-1287
▁Netherfield	-1288
ws	-1289
▁V	-1290
▁aw	-1291
▁dra	-1292
oured	-1293
▁purs	-1294
▁marry	-1295
▁party	-1296
▁Foundation	-1297
mb	-1298
oc	-1299
orm	-1300
you	-1301
ural	-1302
▁Mar	-1303
▁hur	-1304
▁curi	-1305
▁open	-1306
▁stay	-1307
▁ought	-1308
▁round	-1309
▁feeling	-1310
▁opinion	-1311
formation	-1312
▁miserable	-1313
xed	-1314
▁es	-1315
ange	-1316
iful	-1317
over	-1318
▁deg	-1319
▁fan	-1320
▁got	-1321
▁tra	-1322
▁tran	-1323
▁Kitty	-1324
▁taken	-1325
▁coming	-1326
▁longer	-1327
▁walked	-1328
▁brought	-1329
▁spirits	-1330
▁distribut	-1331
▁immediately	-1332
sp	-1333
day	-1334
▁ut	-1335
ager	-1336
▁All	-1337
▁fin	-1338
▁sun	-1339
▁King	-1340
▁obli	-1341
▁misery	-1342
▁connect	-1343
▁looking	-1344
▁countenance	-1345
ford	-1346
fter	-1347
onel	-1348
▁bel	-1349
▁mod	-1350
▁unt	-1351
ented	-1352
▁lady	-1353
olonel	-1354
▁point	-1355
▁change	-1356
▁seeing	-1357
▁general	-1358
▁suppose	-1359
pe	-1360
▁X	-1361
ild	-1362
joy	-1363
▁joy	-1364
▁mist	-1365
ousand	-1366
▁begin	-1367
▁known	-1368
▁sense	-1369
▁manners	-1370
▁acquaint	-1371
▁thoughts	-1372
▁everything	-1373
anc	-1374
▁On	-1375
▁tru	-1376
eness	-1377
ering	-1378
ready	-1379
▁free	-1380
▁jour	-1381
▁pret	-1382
▁repe	-1383
▁walk	-1384
selves	-1385
▁disapp	-1386
▁former	-1387
▁honour	-1388
▁thousand	-1389
og	-1390
ati	-1391
eng	-1392
here	-1393
rely	-1394
ston	-1395
▁enc	-1396
▁wee	-1397
ondon	-1398
▁prot	-1399
▁smil	-1400
though	-1401
▁hours	-1402
▁large	-1403
▁London	-1404
▁Colonel	-1405
▁already	-1406
Yes	-1407
ner	-1408
▁To	-1409
rupt	-1410
▁mat	-1411
▁sum	-1412
▁var	-1413
▁able	-1414
▁horr	-1415
▁mount	-1416
▁neigh	-1417
▁state	-1418
▁accept	-1419
▁married	-1420
▁neighbour	-1421
▁perfectly	-1422
._	-1423
▁2	-1424
les	-1425
ool	-1426
▁pu	-1427
ying	-1428
▁bit	-1429
▁cle	-1430
▁ser	-1431
aster	-1432
ounds	-1433
▁keep	-1434
▁lost	-1435
▁prob	-1436
▁real	-1437
▁scar	-1438
▁tone	-1439
▁cause	-1440
▁eager	-1441
▁enjoy	-1442
▁recollect	-1443
▁acquaintance	-1444
ale	-1445
uct	-1446
▁Cl	-1447
▁av	-1448
hood	-1449
like	-1450
▁hus	-1451
▁sou	-1452
ities	-1453
▁else	-1454
▁face	-1455
▁grat	-1456
▁stud	-1457
▁wife	-1458
▁aston	-1459
▁destro	-1460
▁comfort	-1461
▁journey	-1462
▁persuad	-1463
▁creature	-1464
▁resolved	-1465
ows	-1466
▁Ge	-1467
ength	-1468
▁name	-1469
▁situ	-1470
▁dread	-1471
▁offic	-1472
▁scene	-1473
▁length	-1474
▁mountain	-1475
▁appearance	-1476
_,	-1477
to	-1478
ned	-1479
omp	-1480
sequ	-1481
▁cal	-1482
▁cor	-1483
▁inn	-1484
▁jud	-1485
▁vie	-1486
▁Geor	-1487
▁conv	-1488
▁sort	-1489
▁assist	-1490
▁months	-1491
▁wished	-1492
be	-1493
men	-1494
ury	-1495
That	-1496
tled	-1497
utes	-1498
▁din	-1499
erval	-1500
iable	-1501
ution	-1502
▁self	-1503
▁serv	-1504
▁Turtle	-1505
▁descri	-1506
▁Clerval	-1507
▁attempt	-1508
▁silence	-1509
▁talking	-1510
▁business	-1511
▁endeavour	-1512
▁knowledge	-1513
▁Un	-1514
band	-1515
cely	-1516
iter	-1517
room	-1518
▁aff	-1519
▁fre	-1520
▁gri	-1521
▁sur	-1522
ffect	-1523
tered	-1524
viour	-1525
▁Just	-1526
▁wood	-1527
erence	-1528
▁compl	-1529
ishment	-1530
ossible	-1531
▁destroy	-1532
▁husband	-1533
▁natural	-1534
▁remained	-1535
II	-1536
eas	-1537
ian	-1538
ages	-1539
angu	-1540
ical	-1541
ides	-1542
nest	-1543
▁hea	-1544
usion	-1545
▁Mery	-1546
▁Mock	-1547
▁dare	-1548
▁glad	-1549
▁prof	-1550
▁stre	-1551
▁until	-1552
osition	-1553
▁Meryton	-1554
▁behaviour	-1555
oot	-1556
▁co	-1557
phon	-1558
well	-1559
▁ask	-1560
▁beh	-1561
▁cap	-1562
▁ele	-1563
▁met	-1564
ident	-1565
▁After	-1566
▁sight	-1567
▁minutes	-1568
▁expected	-1569
▁followed	-1570
▁kindness	-1571
▁scarcely	-1572
▁impossible	-1573
ee	-1574
eli	-1575
par	-1576
▁ed	-1577
▁ri	-1578
▁vi	-1579
come	-1580
leep	-1581
▁Gry	-1582
▁wis	-1583
ortun	-1584
▁cold	-1585
▁purp	-1586
idence	-1587
ission	-1588
▁impro	-1589
▁occup	-1590
▁quick	-1591
▁Hatter	-1592
▁Pember	-1593
▁advant	-1594
▁beauty	-1595
▁comple	-1596
▁Gryphon	-1597
▁engaged	-1598
▁question	-1599
▁Pemberley	-1600
arr	-1601
ken	-1602
▁ca	-1603
▁ph	-1604
▁Cat	-1605
▁Eng	-1606
▁tor	-1607
▁why	-1608
spect	-1609
▁fall	-1610
▁step	-1611
itting	-1612
▁exist	-1613
▁depart	-1614
▁concern	-1615
▁proceed	-1616
▁children	-1617
▁agreeable	-1618
▁agreement	-1619
▁copyright	-1620
▁surprised	-1621
How	-1622
his	-1623
itz	-1624
▁Do	-1625
▁Oh	-1626
▁bo	-1627
akes	-1628
alth	-1629
▁viol	-1630
fortun	-1631
▁write	-1632
▁entire	-1633
▁matter	-1634
▁Justine	-1635
▁pleased	-1636
▁settled	-1637
▁expressed	-1638
▁information	-1639
br	-1640
—”	-1641
▁No	-1642
ooks	-1643
▁lau	-1644
abbit	-1645
▁stru	-1646
▁allow	-1647
▁pride	-1648
▁saying	-1649
▁strong	-1650
▁despair	-1651
▁greater	-1652
▁remember	-1653
▁instantly	-1654
▁determined	-1655
No	-1656
ants	-1657
raid	-1658
▁pea	-1659
ading	-1660
orrow	-1661
▁dark	-1662
▁nearly	-1663
▁anxious	-1664
▁consequ	-1665
▁cottage	-1666
▁strange	-1667
▁believed	-1668
▁opportun	-1669
▁suddenly	-1670
▁wretched	-1671
▁necessary	-1672
▁afterwards	-1673
If	-1674
of	-1675
ime	-1676
dshi	-1677
elix	-1678
ploy	-1679
uded	-1680
▁Sir	-1681
▁tem	-1682
inced	-1683
▁deal	-1684
▁gard	-1685
▁perm	-1686
▁true	-1687
▁incre	-1688
▁langu	-1689
▁table	-1690
▁afraid	-1691
▁desire	-1692
▁easily	-1693
▁horror	-1694
▁second	-1695
▁amiable	-1696
▁although	-1697
▁entirely	-1698
▁beautiful	-1699
▁daughters	-1700
▁gentleman	-1701
.’	-1702
erve	-1703
ring	-1704
ship	-1705
▁Ros	-1706
▁lab	-1707
▁mot	-1708
▁ten	-1709
ccess	-1710
duced	-1711
▁case	-1712
▁draw	-1713
▁four	-1714
▁rend	-1715
▁sing	-1716
▁soci	-1717
▁talk	-1718
▁admir	-1719
▁girls	-1720
▁super	-1721
▁tried	-1722
▁watch	-1723
▁attent	-1724
▁employ	-1725
▁except	-1726
▁listen	-1727
▁Rosings	-1728
▁observed	-1729
▁surprise	-1730
▁themselves	-1731
EN	-1732
gr	-1733
bed	-1734
oun	-1735
▁So	-1736
▁Wh	-1737
▁ma	-1738
ific	-1739
ison	-1740
urst	-1741
▁def	-1742
▁sea	-1743
▁try	-1744
ative	-1745
cious	-1746
▁ball	-1747
▁evil	-1748
▁prin	-1749
▁warm	-1750
inking	-1751
▁conce	-1752
▁extre	-1753
▁forth	-1754
▁tears	-1755
▁degree	-1756
▁effect	-1757
▁master	-1758
▁silent	-1759
▁fortune	-1760
▁greatest	-1761
▁convinced	-1762
▁interrupt	-1763
▁situation	-1764
cip	-1765
ead	-1766
eri	-1767
ont	-1768
rew	-1769
raph	-1770
will	-1771
wise	-1772
▁Yet	-1773
▁ord	-1774
▁tea	-1775
ising	-1776
▁Mary	-1777
▁need	-1778
▁plan	-1779
ending	-1780
▁spent	-1781
▁Rabbit	-1782
▁become	-1783
▁itself	-1784
▁spirit	-1785
▁allowed	-1786
▁conduct	-1787
▁protect	-1788
▁carriage	-1789
▁satisfied	-1790
irm	-1791
she	-1792
iece	-1793
iety	-1794
oney	-1795
▁ign	-1796
▁swe	-1797
▁sym	-1798
▁anim	-1799
▁disg	-1800
▁trad	-1801
▁view	-1802
▁const	-1803
▁early	-1804
▁fixed	-1805
▁hopes	-1806
▁intro	-1807
▁occur	-1808
▁peace	-1809
▁assure	-1810
▁garden	-1811
▁inquir	-1812
▁instru	-1813
▁likely	-1814
▁making	-1815
▁opened	-1816
▁slight	-1817
▁forward	-1818
▁purpose	-1819
▁advantage	-1820
▁companion	-1821
ote	-1822
▁18	-1823
▁eB	-1824
uish	-1825
yond	-1826
▁Let	-1827
▁cre	-1828
▁dev	-1829
▁fut	-1830
▁With	-1831
▁drew	-1832
▁sole	-1833
▁unha	-1834
▁used	-1835
icense	-1836
▁Felix	-1837
▁dance	-1838
▁exact	-1839
▁George	-1840
▁States	-1841
▁United	-1842
▁ground	-1843
▁arrived	-1844
▁collect	-1845
▁society	-1846
▁answered	-1847
▁difficul	-1848
▁opportunity	-1849
az	-1850
bs	-1851
ip	-1852
ars	-1853
ony	-1854
▁ap	-1855
▁sl	-1856
arent	-1857
ified	-1858
illed	-1859
osity	-1860
▁exec	-1861
▁summ	-1862
▁concl	-1863
▁earth	-1864
▁frequ	-1865
▁usual	-1866
▁bitter	-1867
▁fellow	-1868
▁earnest	-1869
▁obliged	-1870
▁civility	-1871
▁repeated	-1872
▁acquainted	-1873
by	-1874
erp	-1875
oid	-1876
vol	-1877
▁ir	-1878
Well	-1879
cell	-1880
hess	-1881
pped	-1882
▁Not	-1883
▁arm	-1884
▁cat	-1885
▁eye	-1886
▁glo	-1887
▁ice	-1888
▁lea	-1889
▁son	-1890
night	-1891
redit	-1892
▁exam	-1893
▁five	-1894
▁mine	-1895
▁paid	-1896
agraph	-1897
uchess	-1898
▁meant	-1899
▁sleep	-1900
▁sweet	-1901
▁truth	-1902
▁beyond	-1903
▁import	-1904
▁intell	-1905
▁remark	-1906
▁talked	-1907
▁assured	-1908
▁neither	-1909
▁support	-1910
▁everybody	-1911
▁following	-1912
▁paragraph	-1913
▁relations	-1914
▁discovered	-1915
ND	-1916
gg	-1917
als	-1918
vel	-1919
▁ru	-1920
▁sw	-1921
airs	-1922
cend	-1923
▁bro	-1924
▁lay	-1925
▁pay	-1926
▁pri	-1927
▁sir	-1928
▁hold	-1929
▁soul	-1930
icient	-1931
▁Their	-1932
▁break	-1933
▁close	-1934
▁court	-1935
▁dream	-1936
▁fancy	-1937
▁money	-1938
▁smile	-1939
▁sound	-1940
▁anyone	-1941
▁engage	-1942
▁future	-1943
▁health	-1944
▁merely	-1945
▁minute	-1946
▁wishes	-1947
▁Duchess	-1948
▁extreme	-1949
▁success	-1950
▁Ladyship	-1951
▁happened	-1952
▁circumstances	-1953
ash	-1954
cap	-1955
iet	-1956
ppy	-1957
hile	-1958
liar	-1959
tain	-1960
▁dut	-1961
▁mil	-1962
▁mus	-1963
▁sol	-1964
itten	-1965
ourgh	-1966
▁Arch	-1967
▁Hert	-1968
▁fine	-1969
▁fire	-1970
▁news	-1971
▁year	-1972
dshire	-1973
▁bound	-1974
▁charm	-1975
▁innoc	-1976
▁loved	-1977
▁relie	-1978
▁remem	-1979
▁youth	-1980
ability	-1981
ceiving	-1982
iterary	-1983
▁Bourgh	-1984
▁comply	-1985
▁design	-1986
▁heaven	-1987
opyright	-1988
▁Hertfor	-1989
▁confess	-1990
▁receive	-1991
▁serious	-1992
▁handsome	-1993
▁curiosity	-1994
▁Hertfordshire	-1995
uck	-1996
▁An	-1997
anch	-1998
know	-1999
▁dro	-2000
▁led	-2001
▁sim	-2002
▁unf	-2003
anced	-2004
▁Dorm	-2005
▁calm	-2006
▁dead	-2007
▁fair	-2008
▁none	-2009
▁pict	-2010
▁week	-2011
cience	-2012
voured	-2013
▁ignor	-2014
▁lived	-2015
▁credit	-2016
▁depend	-2017
▁forget	-2018
▁suffer	-2019
▁Archive	-2020
▁address	-2021
▁arrival	-2022
▁exactly	-2023
▁written	-2024
▁Dormouse	-2025
▁speaking	-2026
▁gentlemen	-2027
▁possessed	-2028
▁admiration	-2029
▁particularly	-2030
94	-2031
He	-2032
▁sk	-2033
orry	-2034
what	-2035
▁wit	-2036
emark	-2037
shire	-2038
▁laws	-2039
▁March	-2040
▁bring	-2041
▁doing	-2042
▁sorry	-2043
▁around	-2044
▁commun	-2045
▁excell	-2046
▁latter	-2047
▁Forster	-2048
▁entreat	-2049
▁exclaim	-2050
▁increas	-2051
▁promise	-2052
▁Literary	-2053
▁distance	-2054
▁pleasant	-2055
▁mountains	-2056
ex	-2057
int	-2058
iod	-2059
irt	-2060
omm	-2061
▁ve	-2062
fast	-2063
ging	-2064
iced	-2065
rank	-2066
▁fur	-2067
▁ran	-2068
▁run	-2069
▁ter	-2070
▁vol	-2071
▁Your	-2072
▁bear	-2073
▁wand	-2074
▁above	-2075
▁chief	-2076
▁fiend	-2077
▁access	-2078
▁acknow	-2079
▁behind	-2080
▁danger	-2081
▁encour	-2082
▁exceed	-2083
▁period	-2084
▁placed	-2085
▁temper	-2086
▁walking	-2087
▁discover	-2088
▁mentioned	-2089
▁perceived	-2090
▁considered	-2091
▁expression	-2092
▁endeavoured	-2093
_.	-2094
mn	-2095
ior	-2096
ung	-2097
enev	-2098
held	-2099
lips	-2100
semb	-2101
▁inj	-2102
▁yes	-2103
inary	-2104
▁auth	-2105
▁fail	-2106
▁hist	-2107
▁prep	-2108
▁wild	-2109
erning	-2110
formed	-2111
▁escap	-2112
▁reply	-2113
▁seems	-2114
▁stand	-2115
▁times	-2116
▁attach	-2117
▁consol	-2118
▁formed	-2119
▁impati	-2120
▁joined	-2121
▁notice	-2122
▁perform	-2123
▁officers	-2124
▁invitation	-2125
Do	-2126
RE	-2127
▁3	-2128
acy	-2129
erc	-2130
nat	-2131
▁Ag	-2132
▁TH	-2133
▁mo	-2134
▁“_	-2135
ames	-2136
blic	-2137
itzw	-2138
peci	-2139
play	-2140
tern	-2141
▁Phi	-2142
▁Why	-2143
▁ago	-2144
▁ard	-2145
▁art	-2146
▁eld	-2147
▁fat	-2148
▁lim	-2149
▁van	-2150
arest	-2151
eneva	-2152
▁1894	-2153
▁book	-2154
▁fact	-2155
▁land	-2156
▁susp	-2157
itions	-2158
▁Allen	-2159
▁Fitzw	-2160
▁clear	-2161
▁equal	-2162
▁event	-2163
▁laugh	-2164
▁utter	-2165
▁charge	-2166
▁includ	-2167
▁unable	-2168
▁Philips	-2169
▁conceal	-2170
▁display	-2171
▁various	-2172
▁younger	-2173
▁approach	-2174
▁communic	-2175
▁language	-2176
▁supposed	-2177
▁beginning	-2178
▁donations	-2179
▁favourite	-2180
▁trademark	-2181
▁Fitzwilliam	-2182
▁neighbourhood	-2183
IT	-2184
]]	-2185
ey	-2186
▁]	-2187
▁arr	-2188
▁cop	-2189
▁eff	-2190
▁emb	-2191
▁low	-2192
▁pol	-2193
▁ste	-2194
▁val	-2195
ouble	-2196
▁symp	-2197
▁tale	-2198
▁vain	-2199
ancing	-2200
▁cheer	-2201
▁worth	-2202
▁common	-2203
▁fright	-2204
▁indiff	-2205
▁proper	-2206
▁absence	-2207
▁profess	-2208
Copyright	-2209
▁stranger	-2210
▁existence	-2211
▁sensations	-2212
▁astonishment	-2213
hor	-2214
▁[_	-2215
._]]	-2216
hend	-2217
live	-2218
omed	-2219
▁bir	-2220
▁wel	-2221
▁kept	-2222
▁send	-2223
▁tast	-2224
▁virt	-2225
rehend	-2226
▁Hurst	-2227
▁decla	-2228
▁intim	-2229
▁liked	-2230
▁uncom	-2231
▁accord	-2232
▁afford	-2233
▁dinner	-2234
▁living	-2235
▁regret	-2236
▁courage	-2237
▁hearing	-2238
▁attended	-2239
▁listened	-2240
▁promised	-2241
▁thinking	-2242
▁creatures	-2243
▁concerning	-2244
▁disposition	-2245
She	-2246
lig	-2247
▁Al	-2248
▁den	-2249
▁fal	-2250
▁hor	-2251
▁law	-2252
▁tol	-2253
▁win	-2254
▁won	-2255
ested	-2256
iding	-2257
▁Aust	-2258
▁choo	-2259
▁feet	-2260
▁fond	-2261
▁guil	-2262
▁late	-2263
▁seek	-2264
▁Every	-2265
▁avoid	-2266
▁exert	-2267
▁offer	-2268
▁pursu	-2269
▁story	-2270
▁thank	-2271
▁Geneva	-2272
▁beheld	-2273
▁especi	-2274
▁labour	-2275
▁marked	-2276
▁pretty	-2277
▁public	-2278
▁recomm	-2279
▁window	-2280
▁further	-2281
▁instead	-2282
▁knowing	-2283
▁letters	-2284
▁prospect	-2285
▁superior	-2286
▁breakfast	-2287
▁excellent	-2288
▁exclaimed	-2289
gu	-2290
ww	-2291
Why	-2292
ges	-2293
idd	-2294
ize	-2295
lly	-2296
ole	-2297
pid	-2298
ump	-2299
▁Sa	-2300
This	-2301
erer	-2302
ilos	-2303
race	-2304
your	-2305
▁age	-2306
▁fee	-2307
▁ide	-2308
▁mag	-2309
▁med	-2310
▁mem	-2311
▁neg	-2312
▁suc	-2313
ailed	-2314
ardon	-2315
gment	-2316
ompan	-2317
▁That	-2318
▁enem	-2319
▁inha	-2320
▁prog	-2321
▁whis	-2322
ilosop	-2323
▁These	-2324
▁contr	-2325
▁dared	-2326
▁false	-2327
▁grief	-2328
▁quiet	-2329
▁trees	-2330
▁explan	-2331
▁giving	-2332
▁highly	-2333
▁please	-2334
▁possib	-2335
▁solemn	-2336
▁taking	-2337
▁tranqu	-2338
▁capable	-2339
▁compass	-2340
▁quickly	-2341
▁sitting	-2342
▁succeed	-2343
▁unhappy	-2344
▁writing	-2345
▁philosop	-2346
▁addressed	-2347
▁delighted	-2348
▁attachment	-2349
AR	-2350
hip	-2351
oly	-2352
▁By	-2353
▁OF	-2354
ices	-2355
vell	-2356
▁One	-2357
▁cur	-2358
▁saf	-2359
ality	-2360
osing	-2361
overy	-2362
▁Hare	-2363
▁post	-2364
▁sake	-2365
▁spot	-2366
▁vent	-2367
action	-2368
▁enter	-2369
▁learn	-2370
▁plain	-2371
▁ready	-2372
▁spite	-2373
▁stood	-2374
▁trust	-2375
▁author	-2376
▁lovely	-2377
▁secret	-2378
▁dearest	-2379
▁desired	-2380
▁eagerly	-2381
▁history	-2382
▁imagine	-2383
▁quitted	-2384
▁related	-2385
▁witness	-2386
▁intellig	-2387
▁sensible	-2388
▁whatever	-2389
▁gratitude	-2390
▁persuaded	-2391
▁attentions	-2392
▁especially	-2393
▁consequence	-2394
ix	-2395
▁XX	-2396
Your	-2397
enty	-2398
resh	-2399
▁dri	-2400
▁eat	-2401
▁pra	-2402
▁sad	-2403
ively	-2404
owers	-2405
umber	-2406
▁From	-2407
▁easy	-2408
▁lips	-2409
▁mort	-2410
▁path	-2411
▁proc	-2412
itated	-2413
▁abhor	-2414
▁benef	-2415
▁hoped	-2416
▁ideas	-2417
▁rapid	-2418
ancholy	-2419
fulness	-2420
▁Austen	-2421
▁across	-2422
▁sorrow	-2423
▁License	-2424
▁getting	-2425
▁hastily	-2426
▁hurried	-2427
▁monster	-2428
▁passion	-2429
▁sympath	-2430
▁trouble	-2431
▁turning	-2432
▁finished	-2433
▁mistaken	-2434
▁unfortun	-2435
▁generally	-2436
▁questions	-2437
▁compliment	-2438
my	-2439
▁4	-2440
Not	-2441
ace	-2442
ein	-2443
new	-2444
oci	-2445
aint	-2446
arer	-2447
duce	-2448
ency	-2449
enst	-2450
grat	-2451
ines	-2452
ized	-2453
lace	-2454
lish	-2455
ored	-2456
rate	-2457
▁bes	-2458
▁die	-2459
▁mel	-2460
▁spo	-2461
▁unp	-2462
eless	-2463
ictor	-2464
illar	-2465
ously	-2466
round	-2467
where	-2468
▁died	-2469
▁sick	-2470
iments	-2471
▁Frank	-2472
▁Mouse	-2473
▁along	-2474
▁amuse	-2475
▁bless	-2476
▁civil	-2477
▁gloom	-2478
enstein	-2479
▁associ	-2480
▁chance	-2481
▁deeply	-2482
▁excess	-2483
▁forced	-2484
▁unless	-2485
erpillar	-2486
▁Heading	-2487
▁anybody	-2488
▁company	-2489
▁meeting	-2490
▁science	-2491
▁directly	-2492
▁occupied	-2493
▁probably	-2494
▁sentence	-2495
▁suffered	-2496
▁acknowled	-2497
▁otherwise	-2498
▁compassion	-2499
▁disappoint	-2500
▁melancholy	-2501
▁consolation	-2502
▁exceedingly	-2503
▁circumstance	-2504
We	-2505
:--	-2506
oes	-2507
phe	-2508
ray	-2509
▁Be	-2510
When	-2511
arch	-2512
hens	-2513
lack	-2514
▁bed	-2515
▁col	-2516
▁del	-2517
▁fig	-2518
There	-2519
bered	-2520
brary	-2521
enced	-2522
using	-2523
utely	-2524
▁fami	-2525
▁foot	-2526
▁quar	-2527
▁rose	-2528
▁sche	-2529
▁sign	-2530
▁stat	-2531
▁weak	-2532
rehens	-2533
▁agony	-2534
▁claim	-2535
▁guard	-2536
▁hurry	-2537
▁moved	-2538
▁steps	-2539
▁study	-2540
▁treat	-2541
▁tremb	-2542
▁wrote	-2543
▁Victor	-2544
▁applic	-2545
▁defect	-2546
▁effort	-2547
▁native	-2548
▁obtain	-2549
▁report	-2550
▁resent	-2551
▁summer	-2552
▁wholly	-2553
▁winter	-2554
▁explain	-2555
▁justice	-2556
▁library	-2557
▁moments	-2558
▁provide	-2559
▁removed	-2560
▁accompan	-2561
▁complete	-2562
▁intended	-2563
▁persuade	-2564
▁produced	-2565
▁rendered	-2566
▁fortnight	-2567
▁including	-2568
▁inquiries	-2569
▁proceeded	-2570
▁comprehend	-2571
▁delightful	-2572
▁frequently	-2573
▁permission	-2574
▁understood	-2575
▁Caterpillar	-2576
▁interesting	-2577
▁Frankenstein	-2578
▁understanding	-2579
),	-2580
CT	-2581
Mr	-2582
ax	-2583
amp	-2584
ets	-2585
jud	-2586
org	-2587
orn	-2588
rud	-2589
----	-2590
They	-2591
eech	-2592
enry	-2593
olog	-2594
ompl	-2595
ular	-2596
▁Der	-2597
▁Had	-2598
▁Som	-2599
▁ban	-2600
▁bar	-2601
▁loc	-2602
agers	-2603
osure	-2604
venge	-2605
▁decl	-2606
▁educ	-2607
▁grow	-2608
▁pref	-2609
▁quit	-2610
▁rage	-2611
▁tend	-2612
gratul	-2613
▁Henry	-2614
▁alarm	-2615
▁extra	-2616
▁proud	-2617
▁remar	-2618
▁renew	-2619
▁tempt	-2620
▁trans	-2621
▁water	-2622
▁bright	-2623
▁filled	-2624
▁follow	-2625
▁fortun	-2626
▁speech	-2627
▁volunt	-2628
▁wanted	-2629
▁England	-2630
▁beloved	-2631
▁changed	-2632
▁curious	-2633
▁decided	-2634
▁disting	-2635
▁drawing	-2636
▁endured	-2637
▁picture	-2638
gutenberg	-2639
▁addition	-2640
▁ignorant	-2641
▁murderer	-2642
▁overcome	-2643
▁pleasing	-2644
▁regiment	-2645
▁surround	-2646
▁immediate	-2647
▁receiving	-2648
▁remembered	-2649
▁resolution	-2650
▁imagination	-2651
▁affectionate	-2652
▁satisfaction	-2653
In	-2654
gin	-2655
ier	-2656
iny	-2657
ues	-2658
uns	-2659
ush	-2660
▁De	-2661
▁dr	-2662
▁“‘	-2663
read	-2664
veni	-2665
▁pat	-2666
▁pun	-2667
▁rej	-2668
ption	-2669
rible	-2670
▁Such	-2671
▁duty	-2672
▁food	-2673
▁grie	-2674
▁jury	-2675
▁lake	-2676
▁past	-2677
▁shut	-2678
ointed	-2679
▁Derby	-2680
▁While	-2681
▁absol	-2682
▁books	-2683
▁delay	-2684
▁grave	-2685
▁judge	-2686
▁match	-2687
▁speed	-2688
▁start	-2689
▁women	-2690
ruction	-2691
unsford	-2692
▁admire	-2693
▁happen	-2694
▁indign	-2695
▁memory	-2696
▁waited	-2697
▁English	-2698
▁accompl	-2699
▁anguish	-2700
▁anxiety	-2701
▁benevol	-2702
▁conject	-2703
▁consent	-2704
▁dancing	-2705
▁greatly	-2706
▁partial	-2707
▁prevent	-2708
▁reached	-2709
▁distress	-2710
▁marrying	-2711
▁progress	-2712
▁destroyed	-2713
▁explanation	-2714
IN	-2715
OU	-2716
cu	-2717
lu	-2718
eem	-2719
fie	-2720
hum	-2721
ify	-2722
ses	-2723
▁da	-2724
Come	-2725
▁God	-2726
▁bad	-2727
▁div	-2728
▁ori	-2729
arily	-2730
rance	-2731
▁body	-2732
▁hide	-2733
▁snow	-2734
▁vill	-2735
erving	-2736
ishing	-2737
leness	-2738
ortion	-2739
uished	-2740
▁assur	-2741
▁black	-2742
▁breat	-2743
▁cross	-2744
▁desir	-2745
▁dwell	-2746
▁indul	-2747
▁liber	-2748
▁miles	-2749
▁names	-2750
▁pause	-2751
▁reach	-2752
▁weeks	-2753
▁attend	-2754
▁compar	-2755
▁desert	-2756
▁experi	-2757
▁feared	-2758
▁gained	-2759
▁murder	-2760
▁pounds	-2761
▁proved	-2762
▁struck	-2763
▁meaning	-2764
▁princip	-2765
▁revenge	-2766
▁servant	-2767
▁describe	-2768
▁dreadful	-2769
▁whenever	-2770
▁Sometimes	-2771
▁congratul	-2772
▁discovery	-2773
▁prevented	-2774
▁Derbyshire	-2775
▁approached	-2776
▁sufficient	-2777
▁reflections	-2778
▁unfortunate	-2779
▁disappointment	-2780
IS	-2781
RA	-2782
ug	-2783
ze	-2784
amb	-2785
oor	-2786
wor	-2787
▁LI	-2788
▁di	-2789
▁fr	-2790
oted	-2791
urch	-2792
uted	-2793
▁Car	-2794
▁THE	-2795
▁dom	-2796
▁hig	-2797
▁imm	-2798
▁www	-2799
ences	-2800
otten	-2801
ourse	-2802
ushed	-2803
▁Sect	-2804
▁argu	-2805
▁eleg	-2806
▁hate	-2807
▁hung	-2808
▁loud	-2809
▁pron	-2810
▁scen	-2811
▁slow	-2812
▁spec	-2813
▁tort	-2814
▁angry	-2815
▁delic	-2816
▁eBook	-2817
▁enemy	-2818
▁grate	-2819
▁makes	-2820
▁niece	-2821
▁noble	-2822
▁separ	-2823
▁share	-2824
▁shore	-2825
▁solic	-2826
▁taste	-2827
▁threw	-2828
▁white	-2829
fortune	-2830
righton	-2831
▁assemb	-2832
▁lively	-2833
▁praise	-2834
▁refund	-2835
▁smiled	-2836
▁smiles	-2837
▁streng	-2838
▁wretch	-2839
▁However	-2840
▁dislike	-2841
▁equally	-2842
▁neglect	-2843
▁travell	-2844
▁Brighton	-2845
▁Hunsford	-2846
▁accident	-2847
▁directed	-2848
▁provided	-2849
▁watching	-2850
▁cottagers	-2851
▁departure	-2852
▁forgotten	-2853
▁associated	-2854
▁difficulty	-2855
▁misfortune	-2856
▁continually	-2857
▁expectation	-2858
▁interrupted	-2859
▁considerable	-2860
cl	-2861
kn	-2862
ger	-2863
owd	-2864
uff	-2865
esty	-2866
hant	-2867
ills	-2868
ires	-2869
mand	-2870
outh	-2871
▁Who	-2872
▁mut	-2873
▁tax	-2874
▁ven	-2875
ndeed	-2876
▁Then	-2877
▁card	-2878
▁loss	-2879
▁moon	-2880
▁pity	-2881
▁shad	-2882
▁vict	-2883
cended	-2884
erhaps	-2885
▁Safie	-2886
▁blind	-2887
▁check	-2888
▁fatig	-2889
▁looks	-2890
▁nephe	-2891
▁uneas	-2892
▁using	-2893
ception	-2894
▁broken	-2895
▁choose	-2896
▁demand	-2897
▁eldest	-2898
▁escape	-2899
▁esteem	-2900
▁events	-2901
▁origin	-2902
▁pardon	-2903
▁pursue	-2904
▁repres	-2905
▁secure	-2906
▁sought	-2907
▁unwill	-2908
▁carried	-2909
▁created	-2910
▁excited	-2911
▁finding	-2912
▁inhabit	-2913
▁learned	-2914
▁leaving	-2915
▁reading	-2916
▁request	-2917
▁accepted	-2918
▁affected	-2919
▁contempt	-2920
▁increased	-2921
▁intention	-2922
▁tranquill	-2923
▁connection	-2924
▁importance	-2925
▁particulars	-2926
▁distributing	-2927
SE	-2928
wo	-2929
ask	-2930
asp	-2931
elt	-2932
erg	-2933
ext	-2934
kes	-2935
ope	-2936
oup	-2937
▁Sc	-2938
▁er	-2939
atha	-2940
cked	-2941
hich	-2942
rged	-2943
rill	-2944
▁pen	-2945
▁phr	-2946
▁tou	-2947
eased	-2948
ieces	-2949
rence	-2950
▁firm	-2951
▁fore	-2952
▁gall	-2953
▁hall	-2954
▁indu	-2955
▁lose	-2956
▁narr	-2957
▁pecu	-2958
▁rank	-2959
▁road	-2960
▁sail	-2961
▁wait	-2962
▁Eliza	-2963
▁White	-2964
▁aloud	-2965
▁alter	-2966
▁blood	-2967
▁comes	-2968
▁convi	-2969
▁fresh	-2970
▁gover	-2971
▁influ	-2972
▁trial	-2973
▁worse	-2974
▁wrong	-2975
▁affair	-2976
▁beings	-2977
▁belong	-2978
▁copies	-2979
▁distin	-2980
▁figure	-2981
▁longed	-2982
▁number	-2983
▁parent	-2984
▁propos	-2985
▁virtue	-2986
fortunes	-2987
▁contain	-2988
▁instant	-2989
▁pursuit	-2990
▁constant	-2991
▁creation	-2992
▁occurred	-2993
▁peculiar	-2994
▁required	-2995
▁strength	-2996
▁connected	-2997
▁enjoyment	-2998
▁entertain	-2999
▁fortunate	-3000
▁recovered	-3001
▁returning	-3002
▁wonderful	-3003
▁companions	-3004
▁conviction	-3005
▁engagement	-3006
▁reflection	-3007
▁inclination	-3008
▁misfortunes	-3009
▁intelligence	-3010
▁recollection	-3011
To	-3012
UT	-3013
ma	-3014
ift	-3015
imp	-3016
udd	-3017
ulf	-3018
▁ow	-3019
just	-3020
keep	-3021
▁ann	-3022
▁deb	-3023
▁der	-3024
▁ens	-3025
▁hat	-3026
▁rid	-3027
erial	-3028
ining	-3029
verse	-3030
▁bott	-3031
▁cast	-3032
▁corp	-3033
▁cost	-3034
▁hair	-3035
▁rain	-3036
erably	-3037
geance	-3038
licity	-3039
ounced	-3040
▁crowd	-3041
▁dress	-3042
▁fears	-3043
▁field	-3044
▁music	-3045
▁north	-3046
▁repro	-3047
▁shook	-3048
▁Agatha	-3049
▁bestow	-3050
▁choice	-3051
▁colour	-3052
▁condem	-3053
▁eBooks	-3054
▁height	-3055
▁imprud	-3056
▁nephew	-3057
▁nobody	-3058
▁powers	-3059
▁single	-3060
▁suspic	-3061
▁undert	-3062
▁victim	-3063
▁Nothing	-3064
▁Section	-3065
▁improve	-3066
▁located	-3067
▁running	-3068
▁visited	-3069
▁welcome	-3070
ification	-3071
▁bestowed	-3072
▁employed	-3073
▁innocent	-3074
▁presence	-3075
▁uncommon	-3076
▁apprehens	-3077
▁difficult	-3078
▁direction	-3079
▁education	-3080
▁execution	-3081
▁extremely	-3082
▁vengeance	-3083
▁destruction	-3084
▁acknowledged	-3085
ES	-3086
ON	-3087
ah	-3088
_.”	-3089
any	-3090
how	-3091
ics	-3092
raw	-3093
vey	-3094
▁Ch	-3095
▁OR	-3096
▁PR	-3097
▁Sw	-3098
▁bu	-3099
amed	-3100
æmon	-3101
▁fem	-3102
▁fun	-3103
▁lie	-3104
▁mer	-3105
▁ves	-3106
armed	-3107
known	-3108
rived	-3109
▁Here	-3110
▁amaz	-3111
▁clot	-3112
▁deli	-3113
▁ease	-3114
▁elev	-3115
▁fate	-3116
▁feat	-3117
▁forb	-3118
▁game	-3119
▁says	-3120
stairs	-3121
terday	-3122
▁Maria	-3123
▁anger	-3124
▁cloud	-3125
▁guess	-3126
▁guilt	-3127
▁incon	-3128
▁madam	-3129
▁pract	-3130
▁river	-3131
▁agreed	-3132
▁apolog	-3133
▁distur	-3134
▁estate	-3135
▁interf	-3136
▁motive	-3137
▁observ	-3138
▁relate	-3139
▁seated	-3140
▁simple	-3141
▁sounds	-3142
▁spoken	-3143
▁threat	-3144
▁trying	-3145
▁vessel	-3146
▁covered	-3147
▁objects	-3148
▁opening	-3149
▁passing	-3150
▁retired	-3151
▁waiting	-3152
▁apparent	-3153
▁attached	-3154
▁charming	-3155
▁commence	-3156
▁murdered	-3157
▁agitation	-3158
▁composure	-3159
▁absolutely	-3160
▁philosophy	-3161
▁possession	-3162
▁reasonable	-3163
CE	-3164
ED	-3165
OR	-3166
gs	-3167
ho	-3168
_,”	-3169
edd	-3170
ium	-3171
ume	-3172
▁“—	-3173
chan	-3174
cing	-3175
ives	-3176
▁Sat	-3177
▁cru	-3178
▁gaz	-3179
▁red	-3180
▁sky	-3181
▁thy	-3182
▁unl	-3183
▁voy	-3184
assed	-3185
bited	-3186
hamed	-3187
ision	-3188
issed	-3189
isted	-3190
isure	-3191
oline	-3192
osite	-3193
pered	-3194
▁Well	-3195
▁burn	-3196
▁diss	-3197
▁emot	-3198
▁fast	-3199
▁fulf	-3200
▁hint	-3201
▁pati	-3202
▁safe	-3203
▁sank	-3204
▁soft	-3205
▁sour	-3206
▁task	-3207
▁wedd	-3208
ctions	-3209
liance	-3210
▁below	-3211
▁dæmon	-3212
▁mouth	-3213
▁polit	-3214
▁sides	-3215
▁spend	-3216
▁union	-3217
▁During	-3218
▁advice	-3219
▁asking	-3220
▁endure	-3221
▁leaves	-3222
▁precip	-3223
▁relief	-3224
▁scenes	-3225
▁scheme	-3226
▁sooner	-3227
▁spring	-3228
▁taught	-3229
▁tender	-3230
▁warmth	-3231
ordinary	-3232
▁ashamed	-3233
▁attract	-3234
▁leisure	-3235
▁persons	-3236
▁propert	-3237
▁readily	-3238
▁require	-3239
▁violent	-3240
▁wedding	-3241
▁cheerful	-3242
▁declared	-3243
▁familiar	-3244
▁judgment	-3245
▁offended	-3246
▁opposite	-3247
▁sympathy	-3248
▁concerned	-3249
▁confusion	-3250
▁earnestly	-3251
▁encourage	-3252
▁housekeep	-3253
▁innocence	-3254
▁objection	-3255
▁yesterday	-3256
▁favourable	-3257
▁instrument	-3258
▁resentment	-3259
▁surrounded	-3260
▁application	-3261
▁connections	-3262
▁tranquillity	-3263
▁consideration	-3264
▁extraordinary	-3265
.1	-3266
.3	-3267
TI	-3268
sh	-3269
ts	-3270
zz	-3271
▁5	-3272
alt	-3273
ans	-3274
cha	-3275
cul	-3276
ism	-3277
ixt	-3278
ric	-3279
ror	-3280
▁Is	-3281
Then	-3282
aded	-3283
ease	-3284
empl	-3285
geon	-3286
ivid	-3287
kind	-3288
ldom	-3289
ones	-3290
reen	-3291
some	-3292
they	-3293
upid	-3294
uses	-3295
▁Nor	-3296
▁Par	-3297
▁YOU	-3298
▁fif	-3299
▁gen	-3300
▁pap	-3301
▁six	-3302
antic	-3303
atory	-3304
estic	-3305
icked	-3306
oming	-3307
onage	-3308
there	-3309
under	-3310
ursed	-3311
▁----	-3312
▁Even	-3313
▁Some	-3314
▁Thus	-3315
▁boat	-3316
▁chee	-3317
▁excl	-3318
▁exhi	-3319
▁fart	-3320
▁fash	-3321
▁fool	-3322
▁furn	-3323
▁hell	-3324
▁hund	-3325
▁lead	-3326
▁main	-3327
▁park	-3328
▁puzz	-3329
▁rich	-3330
▁seve	-3331
▁size	-3332
▁stri	-3333
▁tall	-3334
▁unex	-3335
▁unre	-3336
bation	-3337
iously	-3338
▁apart	-3339
▁carry	-3340
▁chose	-3341
▁disag	-3342
▁habit	-3343
▁knows	-3344
▁paper	-3345
▁sacri	-3346
▁twice	-3347
▁woods	-3348
▁yield	-3349
▁yours	-3350
duction	-3351
▁behold	-3352
▁belief	-3353
▁nearer	-3354
▁paused	-3355
▁seized	-3356
▁seldom	-3357
▁thrown	-3358
▁applied	-3359
▁besides	-3360
▁clothes	-3361
▁creator	-3362
▁disgust	-3363
▁evident	-3364
▁farther	-3365
▁hundred	-3366
▁impress	-3367
▁painful	-3368
▁parents	-3369
▁partner	-3370
▁remains	-3371
▁satisfy	-3372
▁suspect	-3373
▁village	-3374
▁Caroline	-3375
▁advanced	-3376
▁contempl	-3377
▁deceived	-3378
▁disgrace	-3379
▁dwelling	-3380
▁felicity	-3381
▁material	-3382
▁prepared	-3383
▁probable	-3384
▁property	-3385
▁restored	-3386
▁solitude	-3387
▁wandered	-3388
▁amusement	-3389
▁anxiously	-3390
▁assistant	-3391
▁important	-3392
▁influence	-3393
▁listening	-3394
▁recommend	-3395
▁reflected	-3396
▁remaining	-3397
▁succeeded	-3398
▁assistance	-3399
▁difference	-3400
▁frightened	-3401
▁distribution	-3402
▁indifference	-3403
.)	-3404
:—	-3405
As	-3406
Is	-3407
Of	-3408
vy	-3409
eer	-3410
gel	-3411
hys	-3412
pon	-3413
uss	-3414
win	-3415
chie	-3416
cted	-3417
iana	-3418
ises	-3419
omin	-3420
orne	-3421
quet	-3422
ries	-3423
ucky	-3424
▁PRO	-3425
▁boy	-3426
▁pur	-3427
▁sto	-3428
aming	-3429
ching	-3430
cient	-3431
erent	-3432
iddle	-3433
itate	-3434
itely	-3435
urday	-3436
▁Scot	-3437
▁bore	-3438
▁held	-3439
▁mark	-3440
▁mour	-3441
▁perp	-3442
▁pray	-3443
▁rapt	-3444
▁rate	-3445
▁song	-3446
▁soot	-3447
▁suit	-3448
▁thir	-3449
▁toil	-3450
▁trem	-3451
▁weep	-3452
▁wept	-3453
ifying	-3454
morrow	-3455
ounter	-3456
▁apply	-3457
▁blame	-3458
▁boast	-3459
▁desol	-3460
▁eight	-3461
▁exerc	-3462
▁fever	-3463
▁guest	-3464
▁parts	-3465
▁prove	-3466
▁shock	-3467
ational	-3468
▁ceased	-3469
▁convey	-3470
▁dining	-3471
▁embarr	-3472
▁freely	-3473
▁hither	-3474
▁humour	-3475
▁inform	-3476
▁learnt	-3477
▁prepar	-3478
▁prison	-3479
▁refuse	-3480
▁remind	-3481
▁season	-3482
▁thirst	-3483
▁twenty	-3484
▁vanity	-3485
▁appears	-3486
▁beneath	-3487
▁calling	-3488
▁distant	-3489
▁heavens	-3490
▁labours	-3491
▁noticed	-3492
▁selfish	-3493
▁whisper	-3494
▁Saturday	-3495
▁continue	-3496
▁departed	-3497
▁disagree	-3498
▁disposed	-3499
▁exertion	-3500
▁likewise	-3501
▁servants	-3502
▁standing	-3503
▁upstairs	-3504
▁youngest	-3505
▁performed	-3506
▁prevailed	-3507
▁principal	-3508
▁sensation	-3509
▁sincerely	-3510
▁tolerable	-3511
▁unwilling	-3512
▁astonished	-3513
▁friendship	-3514
▁politeness	-3515
▁accompanied	-3516
▁considering	-3517
▁indifferent	-3518
Are	-3519
Now	-3520
aby	-3521
adt	-3522
bly	-3523
eel	-3524
esc	-3525
hus	-3526
▁Of	-3527
▁ec	-3528
eers	-3529
elve	-3530
illy	-3531
lies	-3532
ngol	-3533
orse	-3534
ples	-3535
pond	-3536
this	-3537
umph	-3538
▁ant	-3539
▁fro	-3540
▁hes	-3541
▁rev	-3542
▁sch	-3543
▁top	-3544
▁una	-3545
▁vex	-3546
acity	-3547
aging	-3548
aring	-3549
ertin	-3550
itary	-3551
ivers	-3552
lease	-3553
stadt	-3554
▁Arab	-3555
▁date	-3556
▁dine	-3557
▁fing	-3558
▁line	-3559
▁merc	-3560
▁mild	-3561
▁neck	-3562
▁nice	-3563
▁nons	-3564
▁priv	-3565
▁rejo	-3566
▁rock	-3567
▁shar	-3568
▁Ingol	-3569
▁alive	-3570
▁awoke	-3571
▁birds	-3572
▁crime	-3573
▁doesn	-3574
▁earli	-3575
▁estab	-3576
▁gives	-3577
▁grand	-3578
▁order	-3579
▁stret	-3580
▁urged	-3581
▁wants	-3582
alities	-3583
▁assert	-3584
▁caught	-3585
▁fallen	-3586
▁medium	-3587
▁middle	-3588
▁result	-3589
▁rising	-3590
▁steady	-3591
▁strugg	-3592
▁thanks	-3593
▁twelve	-3594
▁utmost	-3595
istribut	-3596
▁confirm	-3597
▁content	-3598
▁devoted	-3599
▁fashion	-3600
▁fatigue	-3601
▁lessons	-3602
▁prepare	-3603
▁process	-3604
▁quietly	-3605
▁triumph	-3606
▁useless	-3607
▁wishing	-3608
▁bringing	-3609
▁entrance	-3610
▁evidence	-3611
▁frequent	-3612
▁generous	-3613
▁grateful	-3614
▁horrible	-3615
▁impertin	-3616
▁relation	-3617
▁strongly	-3618
▁subjects	-3619
▁attending	-3620
▁concluded	-3621
▁determine	-3622
▁explained	-3623
▁gratified	-3624
▁necessity	-3625
▁presented	-3626
▁Ingolstadt	-3627
▁collection	-3628
▁conclusion	-3629
▁displaying	-3630
▁distribute	-3631
▁pronounced	-3632
▁sufferings	-3633
▁housekeeper	-3634
▁recollected	-3635
▁respectable	-3636
▁apprehension	-3637
▁wretchedness	-3638
▁distinguished	-3639
,’	-3640
Be	-3641
IL	-3642
LI	-3643
oe	-3644
III	-3645
RAN	-3646
Who	-3647
law	-3648
let	-3649
ode	-3650
onc	-3651
pro	-3652
rie	-3653
umb	-3654
was	-3655
▁17	-3656
▁Ab	-3657
▁Ad	-3658
▁NO	-3659
▁ty	-3660
ergy	-3661
hall	-3662
hest	-3663
husi	-3664
icip	-3665
idst	-3666
ital	-3667
ming	-3668
ovel	-3669
reet	-3670
rist	-3671
▁Bea	-3672
▁Now	-3673
▁Our	-3674
▁XXX	-3675
▁dam	-3676
▁dry	-3677
▁due	-3678
▁fix	-3679
▁fly	-3680
▁hed	-3681
▁lam	-3682
▁lif	-3683
▁tot	-3684
▁uns	-3685
▁ver	-3686
asure	-3687
clock	-3688
ening	-3689
ethod	-3690
giana	-3691
ighed	-3692
olded	-3693
oused	-3694
pping	-3695
riety	-3696
uable	-3697
ulous	-3698
▁Alas	-3699
▁Bill	-3700
▁Mont	-3701
▁arms	-3702
▁blue	-3703
▁cook	-3704
▁grad	-3705
▁insp	-3706
▁irre	-3707
▁lest	-3708
▁move	-3709
▁phys	-3710
▁show	-3711
▁user	-3712
▁vast	-3713
▁wide	-3714
Indeed	-3715
bition	-3716
erland	-3717
ternal	-3718
▁arise	-3719
▁aware	-3720
▁birth	-3721
▁blast	-3722
▁drink	-3723
▁fault	-3724
▁frame	-3725
▁grasp	-3726
▁hovel	-3727
▁invol	-3728
▁moral	-3729
▁proof	-3730
▁restr	-3731
▁sharp	-3732
▁terri	-3733
▁throw	-3734
Project	-3735
ibility	-3736
▁closed	-3737
▁consum	-3738
▁establ	-3739
▁excuse	-3740
▁exting	-3741
▁format	-3742
▁hatred	-3743
▁lately	-3744
▁method	-3745
▁parted	-3746
▁phrase	-3747
▁prefer	-3748
▁raised	-3749
▁reject	-3750
▁sacrif	-3751
▁school	-3752
▁search	-3753
▁showed	-3754
▁slowly	-3755
▁unlike	-3756
▁voyage	-3757
▁Lucases	-3758
▁admired	-3759
▁alarmed	-3760
▁chiefly	-3761
▁command	-3762
▁complex	-3763
▁console	-3764
▁elegant	-3765
▁enthusi	-3766
▁flatter	-3767
▁highest	-3768
▁individ	-3769
▁license	-3770
▁passage	-3771
▁pressed	-3772
▁pursued	-3773
▁rapidly	-3774
▁remorse	-3775
▁smiling	-3776
▁studies	-3777
▁univers	-3778
▁unknown	-3779
▁weather	-3780
▁actually	-3781
▁darkness	-3782
▁entering	-3783
▁features	-3784
▁goodness	-3785
▁improved	-3786
▁intimate	-3787
▁perceive	-3788
▁Georgiana	-3789
▁assurance	-3790
▁attempted	-3791
▁collected	-3792
▁committed	-3793
▁observing	-3794
▁permitted	-3795
▁protected	-3796
▁represent	-3797
▁supposing	-3798
▁tolerably	-3799
▁violently	-3800
▁alteration	-3801
▁benevolent	-3802
▁comparison	-3803
▁confidence	-3804
▁partiality	-3805
▁sentiments	-3806
▁approaching	-3807
▁experienced	-3808
▁indignation	-3809
▁observation	-3810
▁possibility	-3811
▁disagreeable	-3812
▁disappointed	-3813
▁communication	-3814
!’	-3815
00	-3816
no	-3817
;--	-3818
equ	-3819
lif	-3820
rit	-3821
ule	-3822
whe	-3823
▁Ma	-3824
▁Se	-3825
▁et	-3826
Very	-3827
arts	-3828
bing	-3829
cket	-3830
ghed	-3831
iers	-3832
iest	-3833
inah	-3834
osen	-3835
rise	-3836
ront	-3837
rose	-3838
rous	-3839
uing	-3840
▁awk	-3841
▁fit	-3842
▁gro	-3843
▁pal	-3844
▁pit	-3845
▁roy	-3846
▁sla	-3847
▁sty	-3848
▁wid	-3849
alley	-3850
eaven	-3851
erves	-3852
haust	-3853
igned	-3854
jesty	-3855
rench	-3856
worth	-3857
▁Kent	-3858
▁Pars	-3859
▁Poor	-3860
▁alto	-3861
▁caut	-3862
▁didn	-3863
▁dism	-3864
▁hang	-3865
▁harm	-3866
▁hers	-3867
▁magn	-3868
▁nerv	-3869
▁pale	-3870
▁pool	-3871
▁ruin	-3872
▁subs	-3873
▁sugg	-3874
▁surv	-3875
▁sust	-3876
▁thou	-3877
▁trif	-3878
anches	-3879
asions	-3880
brance	-3881
hamber	-3882
humour	-3883
liness	-3884
▁Could	-3885
▁abode	-3886
▁arose	-3887
▁burst	-3888
▁drove	-3889
▁faces	-3890
▁folly	-3891
▁force	-3892
▁lines	-3893
▁model	-3894
▁mouse	-3895
▁owner	-3896
▁shame	-3897
▁views	-3898
▁waves	-3899
▁wound	-3900
istrate	-3901
natured	-3902
ointing	-3903
▁Christ	-3904
▁Though	-3905
▁arrive	-3906
▁calcul	-3907
▁chosen	-3908
▁danced	-3909
▁extent	-3910
▁female	-3911
▁finish	-3912
▁incred	-3913
▁induce	-3914
▁larger	-3915
▁manage	-3916
▁modern	-3917
▁motion	-3918
▁patron	-3919
▁paying	-3920
▁preced	-3921
▁prejud	-3922
▁quarre	-3923
▁roused	-3924
▁severe	-3925
▁spared	-3926
▁unjust	-3927
▁valley	-3928
▁weight	-3929
lessness	-3930
▁altered	-3931
▁awkward	-3932
▁declare	-3933
▁fearful	-3934
▁growing	-3935
▁laughed	-3936
▁nervous	-3937
▁observe	-3938
▁ordered	-3939
▁quarter	-3940
▁replace	-3941
▁torment	-3942
▁uttered	-3943
▁attribut	-3944
▁branches	-3945
▁confused	-3946
▁contrary	-3947
▁disclaim	-3948
▁editions	-3949
▁hitherto	-3950
▁imagined	-3951
▁inclined	-3952
▁informed	-3953
▁inquired	-3954
▁interval	-3955
▁possibly	-3956
▁solitary	-3957
▁trembled	-3958
▁ventured	-3959
▁visitors	-3960
▁Parsonage	-3961
▁believing	-3962
▁conscious	-3963
▁described	-3964
▁inconveni	-3965
▁introduce	-3966
▁ourselves	-3967
▁residence	-3968
▁additional	-3969
▁altogether	-3970
▁endeavours	-3971
▁gentleness	-3972
▁increasing	-3973
▁individual	-3974
▁magistrate	-3975
▁accordingly	-3976
▁comfortable	-3977
▁expressions	-3978
▁improvement	-3979
▁inhabitants	-3980
▁undertaking	-3981
▁accomplished	-3982
▁endeavouring	-3983
▁interference	-3984
▁introduction	-3985
AG	-3986
_”	-3987
bo	-3988
▁6	-3989
asm	-3990
gar	-3991
him	-3992
loo	-3993
odo	-3994
rem	-3995
row	-3996
upp	-3997
▁Er	-3998
▁Ex	-3999
acle	-4000
cean	-4001
cent	-4002
ches	-4003
enny	-4004
etch	-4005
iled	-4006
imin	-4007
line	-4008
ouds	-4009
rees	-4010
side	-4011
stem	-4012
teen	-4013
umer	-4014
with	-4015
▁Kir	-4016
▁Two	-4017
▁bat	-4018
▁cut	-4019
▁etc	-4020
▁leg	-4021
▁lot	-4022
▁obt	-4023
▁sal	-4024
▁sne	-4025
Lizzy	-4026
ature	-4027
cture	-4028
irmed	-4029
stand	-4030
which	-4031
▁Dodo	-4032
▁Soup	-4033
▁baby	-4034
▁bent	-4035
▁bree	-4036
▁cats	-4037
▁chim	-4038
▁city	-4039
▁coff	-4040
▁cust	-4041
▁deny	-4042
▁disd	-4043
▁dish	-4044
▁ears	-4045
▁elop	-4046
▁gain	-4047
▁grew	-4048
▁grin	-4049
▁jump	-4050
▁obst	-4051
▁scre	-4052
▁sink	-4053
▁sold	-4054
▁sunk	-4055
▁tear	-4056
▁welc	-4057
angers	-4058
apable	-4059
course	-4060
ically	-4061
import	-4062
oubted	-4063
pected	-4064
urally	-4065
▁About	-4066
▁Gener	-4067
▁cruel	-4068
▁elder	-4069
▁grown	-4070
▁hedge	-4071
▁hills	-4072
▁impul	-4073
▁limbs	-4074
▁lives	-4075
▁lover	-4076
▁perse	-4077
▁revol	-4078
▁shout	-4079
▁timid	-4080
▁trace	-4081
▁truly	-4082
arewell	-4083
attered	-4084
ilities	-4085
ustomed	-4086
▁Ernest	-4087
▁Kirwin	-4088
▁Street	-4089
▁active	-4090
▁ardour	-4091
▁aspect	-4092
▁breath	-4093
▁caused	-4094
▁crimes	-4095
▁delive	-4096
▁detail	-4097
▁divine	-4098
▁duties	-4099
▁failed	-4100
▁gloomy	-4101
▁guilty	-4102
▁insuff	-4103
▁mighty	-4104
▁perpet	-4105
▁purcha	-4106
▁render	-4107
▁resemb	-4108
▁states	-4109
▁stream	-4110
▁stupid	-4111
▁surely	-4112
▁system	-4113
▁united	-4114
▁Arabian	-4115
▁arrange	-4116
▁copying	-4117
▁degrees	-4118
▁effects	-4119
▁efforts	-4120
▁enjoyed	-4121
▁grieved	-4122
▁inquire	-4123
▁invited	-4124
▁keeping	-4125
▁mistake	-4126
▁parties	-4127
▁produce	-4128
▁recover	-4129
▁retreat	-4130
▁shortly	-4131
▁sincere	-4132
▁torture	-4133
▁variety	-4134
▁watched	-4135
▁Scotland	-4136
▁conceive	-4137
▁delicacy	-4138
▁deprived	-4139
▁exercise	-4140
▁formerly	-4141
▁hastened	-4142
▁included	-4143
▁laughing	-4144
▁nonsense	-4145
▁passions	-4146
▁patience	-4147
▁previous	-4148
▁rational	-4149
▁remarked	-4150
▁smallest	-4151
▁somebody	-4152
▁somewhat	-4153
▁speedily	-4154
▁violence	-4155
▁apartment	-4156
▁authority	-4157
▁certainty	-4158
▁concealed	-4159
▁condemned	-4160
▁condition	-4161
▁confirmed	-4162
▁eagerness	-4163
▁frightful	-4164
▁impatient	-4165
▁incapable	-4166
▁providing	-4167
▁qualities	-4168
▁suspicion	-4169
▁trembling	-4170
▁uncomfort	-4171
▁accustomed	-4172
▁bitterness	-4173
▁compliance	-4174
▁distressed	-4175
▁impatience	-4176
▁introduced	-4177
▁proportion	-4178
▁protectors	-4179
▁remarkably	-4180
▁unexpected	-4181
▁Information	-4182
▁distributed	-4183
▁probability	-4184
▁remembrance	-4185
▁occasionally	-4186
**	-4187
.8	-4188
EM	-4189
IV	-4190
JE	-4191
LA	-4192
NY	-4193
So	-4194
VI	-4195
de	-4196
eb	-4197
▁8	-4198
▁9	-4199
▁•	-4200
BER	-4201
ENT	-4202
ITY	-4203
Let	-4204
eal	-4205
ius	-4206
lst	-4207
nes	-4208
oms	-4209
urm	-4210
▁Am	-4211
▁Re	-4212
▁te	-4213
▁ug	-4214
BERG	-4215
JECT	-4216
Miss	-4217
UTEN	-4218
With	-4219
ancy	-4220
eral	-4221
ilar	-4222
mony	-4223
olds	-4224
pper	-4225
rent	-4226
riet	-4227
rily	-4228
roll	-4229
uous	-4230
urse	-4231
usal	-4232
▁***	-4233
▁ANY	-4234
▁Don	-4235
▁WAR	-4236
▁Yes	-4237
▁bos	-4238
▁bow	-4239
▁cro	-4240
▁err	-4241
▁fil	-4242
▁hot	-4243
▁shr	-4244
▁wre	-4245
ables	-4246
arted	-4247
bsite	-4248
igeon	-4249
inson	-4250
iture	-4251
ocked	-4252
ounce	-4253
ouses	-4254
verty	-4255
▁Have	-4256
▁Soon	-4257
▁Tues	-4258
▁Turk	-4259
▁Will	-4260
▁bare	-4261
▁beat	-4262
▁cere	-4263
▁chem	-4264
▁cord	-4265
▁dign	-4266
▁fees	-4267
▁fish	-4268
▁fled	-4269
▁inex	-4270
▁laid	-4271
▁mult	-4272
▁nort	-4273
▁note	-4274
▁owed	-4275
▁prey	-4276
▁remo	-4277
▁reve	-4278
▁rise	-4279
▁seat	-4280
▁tail	-4281
▁wise	-4282
ainted	-4283
idents	-4284
▁Denny	-4285
▁GUTEN	-4286
▁Paris	-4287
▁avail	-4288
▁bread	-4289
▁chair	-4290
▁coach	-4291
▁devil	-4292
▁drawn	-4293
▁evils	-4294
▁forms	-4295
▁freed	-4296
▁infin	-4297
▁loose	-4298
▁lower	-4299
▁lying	-4300
▁mourn	-4301
▁nurse	-4302
▁overc	-4303
▁penet	-4304
▁piece	-4305
▁press	-4306
▁queer	-4307
▁shape	-4308
▁shown	-4309
▁shudd	-4310
▁silly	-4311
▁storm	-4312
▁style	-4313
▁takes	-4314
▁value	-4315
▁withd	-4316
Perhaps	-4317
natural	-4318
▁French	-4319
▁Heaven	-4320
▁WARRAN	-4321
▁abomin	-4322
▁animal	-4323
▁bottle	-4324
▁chaise	-4325
▁cheeks	-4326
▁church	-4327
▁clever	-4328
▁clouds	-4329
▁comput	-4330
▁dreams	-4331
▁genius	-4332
▁glance	-4333
▁holder	-4334
▁hunger	-4335
▁kindly	-4336
▁lament	-4337
▁narrow	-4338
▁nieces	-4339
▁online	-4340
▁pocket	-4341
▁posted	-4342
▁record	-4343
▁repeat	-4344
▁rushed	-4345
▁senses	-4346
▁sledge	-4347
▁source	-4348
▁stairs	-4349
▁status	-4350
▁uneasy	-4351
▁useful	-4352
▁waters	-4353
▁whilst	-4354
▁wicked	-4355
▁worked	-4356
▁wouldn	-4357
▁Majesty	-4358
▁PROJECT	-4359
▁Tuesday	-4360
▁actions	-4361
▁amongst	-4362
▁benefit	-4363
▁burning	-4364
▁consist	-4365
▁conveni	-4366
▁cousins	-4367
▁deserve	-4368
▁despond	-4369
▁dreaded	-4370
▁dressed	-4371
▁dropped	-4372
▁escaped	-4373
▁follows	-4374
▁hideous	-4375
▁inquiry	-4376
▁liberty	-4377
▁mankind	-4378
▁motives	-4379
▁offered	-4380
▁playing	-4381
▁poverty	-4382
▁private	-4383
▁putting	-4384
▁reality	-4385
▁regular	-4386
▁renewed	-4387
▁service	-4388
▁species	-4389
▁started	-4390
▁stopped	-4391
▁thanked	-4392
▁unpleas	-4393
▁usually	-4394
▁utterly	-4395
▁visitor	-4396
▁website	-4397
▁ardently	-4398
▁bitterly	-4399
▁confined	-4400
▁creating	-4401
▁declined	-4402
▁distinct	-4403
▁domestic	-4404
▁instance	-4405
▁mistress	-4406
▁preserve	-4407
▁procured	-4408
▁proposal	-4409
▁rejoiced	-4410
▁relieved	-4411
▁reserved	-4412
▁valuable	-4413
▁vanished	-4414
▁welcomed	-4415
▁GUTENBERG	-4416
▁according	-4417
▁arguments	-4418
▁attentive	-4419
▁complying	-4420
▁conceived	-4421
▁contribut	-4422
▁encounter	-4423
▁furniture	-4424
▁gradually	-4425
▁ignorance	-4426
▁intellect	-4427
▁naturally	-4428
▁reception	-4429
▁sacrifice	-4430
▁seriously	-4431
▁abhorrence	-4432
▁affections	-4433
▁apparently	-4434
▁employment	-4435
▁impression	-4436
▁interested	-4437
▁neighbours	-4438
▁paragraphs	-4439
▁remarkable	-4440
▁volunteers	-4441
▁engagements	-4442
▁intercourse	-4443
▁occupations	-4444
▁consequently	-4445
▁requirements	-4446
▁uncomfortable	-4447
▁congratulations	-4448
,)	-4449
AM	-4450
Ah	-4451
do	-4452
fl	-4453
ls	-4454
oh	-4455
rs	-4456
—“	-4457
ING	-4458
ade	-4459
bur	-4460
oqu	-4461
rad	-4462
rim	-4463
set	-4464
uge	-4465
▁IN	-4466
▁ga	-4467
Good	-4468
ague	-4469
alty	-4470
amma	-4471
arse	-4472
ases	-4473
cial	-4474
enth	-4475
gged	-4476
ibly	-4477
lour	-4478
quis	-4479
vant	-4480
vert	-4481
whel	-4482
▁Are	-4483
▁Ita	-4484
▁Mor	-4485
▁aid	-4486
▁bef	-4487
▁cab	-4488
▁cou	-4489
▁gay	-4490
▁pet	-4491
▁pig	-4492
▁sle	-4493
▁squ	-4494
aning	-4495
aving	-4496
burgh	-4497
chief	-4498
epend	-4499
iform	-4500
lance	-4501
orses	-4502
place	-4503
velop	-4504
while	-4505
▁Beau	-4506
▁cher	-4507
▁crit	-4508
▁flow	-4509
▁gold	-4510
▁idle	-4511
▁link	-4512
▁mere	-4513
▁obsc	-4514
▁peas	-4515
▁port	-4516
▁prec	-4517
▁prud	-4518
▁rude	-4519
▁scru	-4520
▁snee	-4521
▁stir	-4522
▁thin	-4523
▁tong	-4524
▁tour	-4525
▁vice	-4526
▁wasn	-4527
ecause	-4528
ensive	-4529
itable	-4530
ootman	-4531
ulated	-4532
▁Dinah	-4533
▁acted	-4534
▁angel	-4535
▁banks	-4536
▁begun	-4537
▁borne	-4538
▁cease	-4539
▁daily	-4540
▁debts	-4541
▁doors	-4542
▁eloqu	-4543
▁exped	-4544
▁gazed	-4545
▁glass	-4546
▁haste	-4547
▁infli	-4548
▁labor	-4549
▁miser	-4550
▁moder	-4551
▁ocean	-4552
▁shrie	-4553
▁sport	-4554
▁stars	-4555
▁swell	-4556
▁third	-4557
▁tired	-4558
▁twink	-4559
idently	-4560
oration	-4561
respond	-4562
ulation	-4563
▁Pigeon	-4564
▁advent	-4565
▁amidst	-4566
▁ardent	-4567
▁asleep	-4568
▁betray	-4569
▁breeze	-4570
▁causes	-4571
▁compla	-4572
▁dances	-4573
▁entail	-4574
▁exclam	-4575
▁fulfil	-4576
▁gloves	-4577
▁horses	-4578
▁income	-4579
▁insens	-4580
▁notion	-4581
▁parish	-4582
▁places	-4583
▁princi	-4584
▁repose	-4585
▁safety	-4586
▁settle	-4587
▁supper	-4588
▁supply	-4589
▁terrif	-4590
▁terror	-4591
▁transp	-4592
▁triump	-4593
inations	-4594
oubtedly	-4595
▁General	-4596
▁Perhaps	-4597
▁angrily	-4598
▁anticip	-4599
▁checked	-4600
▁clearly	-4601
▁crossed	-4602
▁delayed	-4603
▁destiny	-4604
▁doubted	-4605
▁eternal	-4606
▁example	-4607
▁expense	-4608
▁gallant	-4609
▁guarded	-4610
▁hanging	-4611
▁illness	-4612
▁matters	-4613
▁outside	-4614
▁plainly	-4615
▁pretend	-4616
▁procure	-4617
▁puzzled	-4618
▁remarks	-4619
▁tempted	-4620
▁thither	-4621
▁thunder	-4622
▁totally	-4623
▁touched	-4624
▁uniform	-4625
▁visible	-4626
▁windows	-4627
▁abhorred	-4628
▁afforded	-4629
▁agitated	-4630
▁animated	-4631
▁argument	-4632
▁composed	-4633
▁executed	-4634
▁heartily	-4635
▁humanity	-4636
▁increase	-4637
▁intimacy	-4638
▁magnific	-4639
▁meantime	-4640
▁moreover	-4641
▁obtained	-4642
▁opinions	-4643
▁original	-4644
▁overwhel	-4645
▁quitting	-4646
▁soldiers	-4647
▁wherever	-4648
▁animation	-4649
▁appearing	-4650
▁contained	-4651
▁defective	-4652
▁descended	-4653
▁desirable	-4654
▁doubtless	-4655
▁elopement	-4656
▁occasions	-4657
▁presently	-4658
▁resolving	-4659
▁sentiment	-4660
▁stretched	-4661
▁treatment	-4662
▁commission	-4663
▁conjecture	-4664
▁conscience	-4665
▁correspond	-4666
▁directions	-4667
▁dreadfully	-4668
▁encouraged	-4669
▁enthusiasm	-4670
▁objections	-4671
▁preference	-4672
▁uncommonly	-4673
▁compliments	-4674
▁description	-4675
▁disappeared	-4676
▁distinguish	-4677
▁excessively	-4678
▁impatiently	-4679
▁insufficient	-4680
▁interruption	-4681
▁relationship	-4682
▁determination	-4683
?’	-4684
AB	-4685
On	-4686
RI	-4687
ob	-4688
Did	-4689
For	-4690
May	-4691
Off	-4692
One	-4693
ald	-4694
att	-4695
bar	-4696
che	-4697
did	-4698
don	-4699
een	-4700
eyn	-4701
has	-4702
hog	-4703
iew	-4704
ilt	-4705
lir	-4706
ogn	-4707
oop	-4708
rot	-4709
zes	-4710
▁15	-4711
▁Bl	-4712
▁lu	-4713
▁oh	-4714
aret	-4715
ased	-4716
ater	-4717
bits	-4718
book	-4719
cied	-4720
gone	-4721
hank	-4722
isen	-4723
laps	-4724
pret	-4725
recy	-4726
vels	-4727
when	-4728
zing	-4729
▁Can	-4730
▁Did	-4731
▁Pre	-4732
▁ble	-4733
▁cry	-4734
▁env	-4735
▁gla	-4736
▁hid	-4737
▁ing	-4738
▁key	-4739
▁lob	-4740
▁mir	-4741
▁rav	-4742
▁sex	-4743
▁spr	-4744
▁tum	-4745
▁vac	-4746
▁wet	-4747
aired	-4748
arded	-4749
ashed	-4750
garet	-4751
hered	-4752
iance	-4753
iring	-4754
itive	-4755
oking	-4756
onday	-4757
orted	-4758
oting	-4759
sters	-4760
unday	-4761
would	-4762
▁Five	-4763
▁Good	-4764
▁Lamb	-4765
▁Lord	-4766
▁Pray	-4767
▁Reyn	-4768
▁arch	-4769
▁busy	-4770
▁cand	-4771
▁capt	-4772
▁comb	-4773
▁dogs	-4774
▁dull	-4775
▁flir	-4776
▁hero	-4777
▁hurt	-4778
▁luck	-4779
▁mile	-4780
▁mock	-4781
▁mode	-4782
▁page	-4783
▁race	-4784
▁serp	-4785
▁sigh	-4786
▁test	-4787
▁thee	-4788
▁tree	-4789
endous	-4790
ension	-4791
esides	-4792
ustice	-4793
▁Switz	-4794
▁bosom	-4795
▁broke	-4796
▁cabin	-4797
▁cards	-4798
▁embra	-4799
▁equip	-4800
▁faint	-4801
▁frost	-4802
▁green	-4803
▁hated	-4804
▁heads	-4805
▁heavy	-4806
▁horse	-4807
▁indic	-4808
▁likes	-4809
▁oblig	-4810
▁pains	-4811
▁recei	-4812
▁saved	-4813
▁shoes	-4814
▁shone	-4815
▁south	-4816
▁swall	-4817
▁teeth	-4818
▁thick	-4819
▁troub	-4820
▁worst	-4821
assment	-4822
erprise	-4823
▁Before	-4824
▁Letter	-4825
▁Sunday	-4826
▁absent	-4827
▁absurd	-4828
▁advise	-4829
▁attack	-4830
▁begged	-4831
▁circle	-4832
▁corpse	-4833
▁crimin	-4834
▁detest	-4835
▁dispos	-4836
▁driven	-4837
▁fields	-4838
▁fitted	-4839
▁govern	-4840
▁humble	-4841
▁indulg	-4842
▁inferi	-4843
▁moving	-4844
▁mutual	-4845
▁partly	-4846
▁patter	-4847
▁reward	-4848
▁shared	-4849
▁stayed	-4850
▁summon	-4851
▁tumult	-4852
▁Bennets	-4853
▁Lambton	-4854
▁ancient	-4855
▁blessed	-4856
▁chamber	-4857
▁chimney	-4858
▁commend	-4859
▁croquet	-4860
▁crowded	-4861
▁descend	-4862
▁discuss	-4863
▁disdain	-4864
▁emotion	-4865
▁exhaust	-4866
▁fancied	-4867
▁forgive	-4868
▁norther	-4869
▁officer	-4870
▁pointed	-4871
▁portion	-4872
▁refused	-4873
▁relieve	-4874
▁sailors	-4875
▁secrecy	-4876
▁seeking	-4877
▁staying	-4878
▁survive	-4879
▁unlucky	-4880
▁Margaret	-4881
▁Reynolds	-4882
▁admitted	-4883
▁contents	-4884
▁contrast	-4885
▁delicate	-4886
▁deserved	-4887
▁desirous	-4888
▁displeas	-4889
▁examined	-4890
▁gracious	-4891
▁happiest	-4892
▁hedgehog	-4893
▁honoured	-4894
▁hopeless	-4895
▁lifeless	-4896
▁maintain	-4897
▁miseries	-4898
▁overcame	-4899
▁personal	-4900
▁pictures	-4901
▁pointing	-4902
▁reproach	-4903
▁suspense	-4904
▁terrible	-4905
▁vexation	-4906
▁weakness	-4907
▁addresses	-4908
▁amazement	-4909
▁confessed	-4910
▁discourse	-4911
▁displayed	-4912
▁disturbed	-4913
▁evidently	-4914
▁exhibited	-4915
▁falsehood	-4916
▁impressed	-4917
▁imprudent	-4918
▁injustice	-4919
▁pleasures	-4920
▁preceding	-4921
▁preparing	-4922
▁proposals	-4923
▁repeating	-4924
▁whispered	-4925
▁Everything	-4926
▁assurances	-4927
▁completely	-4928
▁complexion	-4929
▁enterprise	-4930
▁entreaties	-4931
▁experience	-4932
▁imprudence	-4933
▁perceiving	-4934
▁profession	-4935
▁temptation	-4936
▁unpleasant	-4937
▁Switzerland	-4938
▁benevolence	-4939
▁distinction	-4940
▁entertained	-4941
▁philosopher	-4942
▁recommended	-4943
▁cheerfulness	-4944
▁expectations	-4945
▁embarrassment	-4946
▁encouragement	-4947
▁recollections	-4948
.7	-4949
.9	-4950
/*	-4951
;”	-4952
AL	-4953
An	-4954
At	-4955
CH	-4956
Ex	-4957
SS	-4958
ev	-4959
po	-4960
tw	-4961
yp	-4962
▁-	-4963
.1.	-4964
.3,	-4965
.3.	-4966
.9.	-4967
.’”	-4968
Can	-4969
GRE	-4970
His	-4971
MIT	-4972
TRI	-4973
aff	-4974
apt	-4975
civ	-4976
els	-4977
enk	-4978
mas	-4979
mes	-4980
omy	-4981
osp	-4982
que	-4983
tic	-4984
utr	-4985
vag	-4986
▁*/	-4987
▁/*	-4988
▁20	-4989
▁Im	-4990
▁Kn	-4991
▁Pr	-4992
▁RE	-4993
▁Rh	-4994
▁XL	-4995
▁sn	-4996
AMAG	-4997
Dear	-4998
Lady	-4999
acey	-5000
ards	-5001
cast	-5002
cili	-5003
have	-5004
inct	-5005
lain	-5006
lign	-5007
mine	-5008
nces	-5009
rest	-5010
rive	-5011
road	-5012
umed	-5013
work	-5014
▁17—	-5015
▁AND	-5016
▁Con	-5017
▁DIS	-5018
▁FOR	-5019
▁Wed	-5020
▁bal	-5021
▁bew	-5022
▁blo	-5023
▁bra	-5024
▁bri	-5025
▁ded	-5026
▁lod	-5027
▁lux	-5028
▁odd	-5029
▁owe	-5030
▁pos	-5031
▁rom	-5032
▁ung	-5033
▁war	-5034
▁woe	-5035
ILITY	-5036
MITED	-5037
alled	-5038
anged	-5039
dated	-5040
ebted	-5041
enses	-5042
erity	-5043
inate	-5044
iners	-5045
izing	-5046
onies	-5047
piece	-5048
rated	-5049
rempe	-5050
rille	-5051
ultiv	-5052
▁AGRE	-5053
▁Come	-5054
▁Cont	-5055
▁Jenk	-5056
▁Many	-5057
▁Most	-5058
▁Sept	-5059
▁THIS	-5060
▁Wald	-5061
▁alle	-5062
▁chin	-5063
▁clos	-5064
▁conj	-5065
▁ecst	-5066
▁glor	-5067
▁goes	-5068
▁king	-5069
▁lane	-5070
▁mess	-5071
▁mixt	-5072
▁nose	-5073
▁ones	-5074
▁pack	-5075
▁papa	-5076
▁pred	-5077
▁ramb	-5078
▁rese	-5079
▁rule	-5080
▁save	-5081
▁shed	-5082
▁stop	-5083
▁uses	-5084
▁verd	-5085
▁vers	-5086
▁ways	-5087
alties	-5088
anging	-5089
church	-5090
lapsed	-5091
nesday	-5092
orough	-5093
perate	-5094
rences	-5095
▁DAMAG	-5096
▁First	-5097
▁Knave	-5098
▁Lacey	-5099
▁Never	-5100
▁Those	-5101
▁Where	-5102
▁admit	-5103
▁cares	-5104
▁conqu	-5105
▁curse	-5106
▁deriv	-5107
▁drive	-5108
▁estim	-5109
▁front	-5110
▁grass	-5111
▁ident	-5112
▁infam	-5113
▁links	-5114
▁mamma	-5115
▁minds	-5116
▁neutr	-5117
▁plans	-5118
▁rever	-5119
▁rooms	-5120
▁slept	-5121
▁spare	-5122
▁stead	-5123
▁subst	-5124
▁sympt	-5125
▁train	-5126
▁walks	-5127
Certain	-5128
adrille	-5129
earance	-5130
entions	-5131
etition	-5132
looking	-5133
utation	-5134
▁Krempe	-5135
▁Monday	-5136
▁actual	-5137
▁advers	-5138
▁altern	-5139
▁begins	-5140
▁bottom	-5141
▁clergy	-5142
▁couldn	-5143
▁couple	-5144
▁create	-5145
▁cultiv	-5146
▁dissip	-5147
▁donate	-5148
▁entity	-5149
▁exquis	-5150
▁forgot	-5151
▁formal	-5152
▁hasten	-5153
▁higher	-5154
▁hoping	-5155
▁island	-5156
▁malice	-5157
▁malign	-5158
▁morrow	-5159
▁mortal	-5160
▁offers	-5161
▁office	-5162
▁openly	-5163
▁papers	-5164
▁recent	-5165
▁refuge	-5166
▁resist	-5167
▁select	-5168
▁spread	-5169
▁street	-5170
▁tongue	-5171
▁unhapp	-5172
▁visits	-5173
▁wander	-5174
▁warmly	-5175
▁wealth	-5176
▁Besides	-5177
▁LIMITED	-5178
▁Waldman	-5179
▁accused	-5180
▁advance	-5181
▁affairs	-5182
▁capital	-5183
▁concept	-5184
▁dignity	-5185
▁discont	-5186
▁elapsed	-5187
▁finally	-5188
▁fishing	-5189
▁foolish	-5190
▁happens	-5191
▁hardshi	-5192
▁impulse	-5193
▁leaning	-5194
▁madness	-5195
▁measure	-5196
▁mission	-5197
▁mixture	-5198
▁obscure	-5199
▁parting	-5200
▁project	-5201
▁quality	-5202
▁restore	-5203
▁setting	-5204
▁shouted	-5205
▁similar	-5206
▁suffici	-5207
▁telling	-5208
▁timidly	-5209
▁treated	-5210
▁venture	-5211
▁willing	-5212
Certainly	-5213
important	-5214
▁ambition	-5215
▁assembly	-5216
▁beauties	-5217
▁criminal	-5218
▁dressing	-5219
▁earliest	-5220
▁elegance	-5221
▁emotions	-5222
▁esteemed	-5223
▁expenses	-5224
▁families	-5225
▁indebted	-5226
▁independ	-5227
▁inferior	-5228
▁merchant	-5229
▁mischief	-5230
▁northern	-5231
▁official	-5232
▁payments	-5233
▁physical	-5234
▁politely	-5235
▁regarded	-5236
▁research	-5237
▁situated	-5238
▁softened	-5239
▁thankful	-5240
▁tranquil	-5241
▁unfolded	-5242
▁unreason	-5243
▁wondered	-5244
racechurch	-5245
▁Gardiners	-5246
▁Jenkinson	-5247
▁September	-5248
▁Wednesday	-5249
▁accompany	-5250
▁assembled	-5251
▁carefully	-5252
▁contented	-5253
▁decidedly	-5254
▁equipment	-5255
▁neglected	-5256
▁obtaining	-5257
▁propriety	-5258
▁protested	-5259
▁royalties	-5260
▁satisfact	-5261
▁solemnity	-5262
▁sorrowful	-5263
▁supported	-5264
▁suspected	-5265
▁witnesses	-5266
▁wondering	-5267
▁advantages	-5268
▁applicable	-5269
▁attributed	-5270
▁characters	-5271
▁derivative	-5272
▁expressing	-5273
▁expressive	-5274
▁indulgence	-5275
▁intentions	-5276
▁limitation	-5277
▁mentioning	-5278
▁performing	-5279
▁persuasion	-5280
▁punishment	-5281
▁repeatedly	-5282
▁separation	-5283
▁solicitude	-5284
▁uneasiness	-5285
▁acknowledge	-5286
▁approbation	-5287
▁conjectured	-5288
▁established	-5289
▁generations	-5290
▁magnificent	-5291
▁necessarily	-5292
▁occurrences	-5293
▁redistribut	-5294
▁replacement	-5295
▁resemblance	-5296
▁communicated	-5297
▁contemplated	-5298
▁countenances	-5299
!)	-5300
.,	-5301
Ay	-5302
By	-5303
LL	-5304
OK	-5305
TH	-5306
_;	-5307
ny	-5308
sa	-5309
tê	-5310
—‘	-5311
—’	-5312
!--	-5313
Mrs	-5314
OOK	-5315
asy	-5316
awn	-5317
box	-5318
gan	-5319
mit	-5320
oat	-5321
ots	-5322
ppa	-5323
uls	-5324
zen	-5325
▁(“	-5326
▁Ed	-5327
▁mi	-5328
Have	-5329
Here	-5330
alid	-5331
alif	-5332
ator	-5333
does	-5334
ends	-5335
idge	-5336
ites	-5337
iven	-5338
mate	-5339
ners	-5340
ogue	-5341
oked	-5342
oman	-5343
only	-5344
ouis	-5345
sper	-5346
tête	-5347
vage	-5348
velt	-5349
▁Add	-5350
▁Liz	-5351
▁May	-5352
▁Rem	-5353
▁See	-5354
▁Wal	-5355
▁ate	-5356
▁aud	-5357
▁bod	-5358
▁cow	-5359
▁dim	-5360
▁dun	-5361
▁fac	-5362
▁lic	-5363
▁rul	-5364
▁spe	-5365
▁unw	-5366
▁vul	-5367
Would	-5368
atisf	-5369
bable	-5370
ected	-5371
hroom	-5372
ivity	-5373
ksome	-5374
month	-5375
olent	-5376
onsid	-5377
rippa	-5378
their	-5379
▁Hill	-5380
▁Only	-5381
▁Pres	-5382
▁Tell	-5383
▁blow	-5384
▁born	-5385
▁cens	-5386
▁cool	-5387
▁dawn	-5388
▁deck	-5389
▁dict	-5390
▁edge	-5391
▁elig	-5392
▁enab	-5393
▁farm	-5394
▁ferv	-5395
▁fill	-5396
▁fret	-5397
▁gown	-5398
▁heat	-5399
▁intr	-5400
▁lieu	-5401
▁loat	-5402
▁mach	-5403
▁milk	-5404
▁neat	-5405
▁pair	-5406
▁refr	-5407
▁ring	-5408
▁shan	-5409
▁ship	-5410
▁sixt	-5411
▁surm	-5412
▁swim	-5413
▁syll	-5414
▁temp	-5415
▁text	-5416
▁thro	-5417
▁yawn	-5418
advant	-5419
ailing	-5420
antity	-5421
asures	-5422
easing	-5423
eeling	-5424
everal	-5425
isable	-5426
isance	-5427
orrows	-5428
racted	-5429
soever	-5430
tering	-5431
twenty	-5432
usions	-5433
▁Blanc	-5434
▁House	-5435
▁appar	-5436
▁aside	-5437
▁balls	-5438
▁board	-5439
▁build	-5440
▁carri	-5441
▁crept	-5442
▁crown	-5443
▁discl	-5444
▁dying	-5445
▁facts	-5446
▁fatal	-5447
▁fetch	-5448
▁forci	-5449
▁fully	-5450
▁glaci	-5451
▁glory	-5452
▁griev	-5453
▁group	-5454
▁guide	-5455
▁harsh	-5456
▁haven	-5457
▁hired	-5458
▁imper	-5459
▁merit	-5460
▁punct	-5461
▁shade	-5462
▁spark	-5463
▁spect	-5464
▁straw	-5465
▁toils	-5466
▁vexed	-5467
▁winds	-5468
Nothing	-5469
formity	-5470
inently	-5471
▁Having	-5472
▁Indeed	-5473
▁Walton	-5474
▁accent	-5475
▁barbar	-5476
▁beside	-5477
▁branch	-5478
▁busily	-5479
▁coffee	-5480
▁condes	-5481
▁corner	-5482
▁corpus	-5483
▁decide	-5484
▁deeper	-5485
▁discha	-5486
▁exempt	-5487
▁golden	-5488
▁habits	-5489
▁hiding	-5490
▁horrid	-5491
▁illust	-5492
▁infant	-5493
▁intend	-5494
▁jumped	-5495
▁kissed	-5496
▁novelt	-5497
▁orders	-5498
▁pieces	-5499
▁played	-5500
▁remove	-5501
▁resour	-5502
▁restri	-5503
▁retire	-5504
▁savage	-5505
▁shadow	-5506
▁slates	-5507
▁summit	-5508
▁valued	-5509
▁vulgar	-5510
▁worthy	-5511
interest	-5512
ountable	-5513
▁Agrippa	-5514
▁Footman	-5515
▁accents	-5516
▁alluded	-5517
▁animals	-5518
▁blasted	-5519
▁changes	-5520
▁chooses	-5521
▁condemn	-5522
▁condesc	-5523
▁cordial	-5524
▁disturb	-5525
▁ecstasy	-5526
▁enemies	-5527
▁engross	-5528
▁falling	-5529
▁fifteen	-5530
▁fingers	-5531
▁freedom	-5532
▁gallery	-5533
▁guessed	-5534
▁induced	-5535
▁irksome	-5536
▁modesty	-5537
▁neutral	-5538
▁prosper	-5539
▁receipt	-5540
▁reduced	-5541
▁refusal	-5542
▁rejoice	-5543
▁removal	-5544
▁reserve	-5545
▁schemes	-5546
▁shocked	-5547
▁sixteen	-5548
▁station	-5549
▁tremble	-5550
▁unworth	-5551
▁virtues	-5552
▁weighed	-5553
▁whiting	-5554
▁wonders	-5555
▁activity	-5556
▁anywhere	-5557
▁banished	-5558
▁becoming	-5559
▁blessing	-5560
▁ceremony	-5561
▁concerns	-5562
▁converse	-5563
▁critical	-5564
▁depended	-5565
▁designed	-5566
▁desolate	-5567
▁destined	-5568
▁disappro	-5569
▁elevated	-5570
▁embraced	-5571
▁engaging	-5572
▁extravag	-5573
▁guardian	-5574
▁harmless	-5575
▁includes	-5576
▁mushroom	-5577
▁persever	-5578
▁powerful	-5579
▁presents	-5580
▁properly	-5581
▁quantity	-5582
▁refusing	-5583
▁resigned	-5584
▁respects	-5585
▁romantic	-5586
▁terrific	-5587
▁thorough	-5588
▁advisable	-5589
▁arranging	-5590
▁attracted	-5591
▁clergyman	-5592
▁conducted	-5593
▁consented	-5594
▁continual	-5595
▁deformity	-5596
▁delivered	-5597
▁eloquence	-5598
▁entreated	-5599
▁examining	-5600
▁exhausted	-5601
▁expecting	-5602
▁gallantry	-5603
▁gardeners	-5604
▁governess	-5605
▁inhabited	-5606
▁interpret	-5607
▁meanwhile	-5608
▁oppressed	-5609
▁slightest	-5610
▁somewhere	-5611
▁strangers	-5612
▁structure	-5613
▁sweetness	-5614
▁unnatural	-5615
▁wandering	-5616
▁willingly	-5617
▁accomplish	-5618
▁heightened	-5619
▁honourable	-5620
▁improbable	-5621
▁occasional	-5622
▁occupation	-5623
▁peculiarly	-5624
▁proceeding	-5625
▁triumphant	-5626
▁wickedness	-5627
▁arrangement	-5628
▁astonishing	-5629
▁differently	-5630
▁impertinent	-5631
▁instruments	-5632
▁principally	-5633
▁represented	-5634
▁undoubtedly	-5635
▁confirmation	-5636
▁dispositions	-5637
▁extinguished	-5638
▁impertinence	-5639
▁sufficiently	-5640
▁condescension	-5641
▁gentlemanlike	-5642
,_	-5643
01	-5644
6.	-5645
Al	-5646
LE	-5647
UD	-5648
Un	-5649
ub	-5650
ys	-5651
▁7	-5652
?_”	-5653
ART	-5654
All	-5655
aws	-5656
can	-5657
cid	-5658
der	-5659
dom	-5660
eak	-5661
egr	-5662
ieu	-5663
ilf	-5664
net	-5665
ols	-5666
pes	-5667
ply	-5668
sec	-5669
str	-5670
why	-5671
▁22	-5672
▁26	-5673
▁Em	-5674
▁FU	-5675
▁La	-5676
▁Le	-5677
▁PU	-5678
▁au	-5679
▁dw	-5680
▁ho	-5681
▁od	-5682
▁vo	-5683
▁‘_	-5684
Sure	-5685
Upon	-5686
ains	-5687
alls	-5688
bled	-5689
hire	-5690
illa	-5691
inea	-5692
ists	-5693
iver	-5694
lete	-5695
lime	-5696
long	-5697
mber	-5698
must	-5699
odge	-5700
omes	-5701
pite	-5702
rene	-5703
rium	-5704
rust	-5705
sing	-5706
tion	-5707
vent	-5708
vity	-5709
▁Aug	-5710
▁Bel	-5711
▁CON	-5712
▁Its	-5713
▁Man	-5714
▁PRE	-5715
▁Pro	-5716
▁Van	-5717
▁bur	-5718
▁cra	-5719
▁cup	-5720
▁emp	-5721
▁gat	-5722
▁gig	-5723
▁god	-5724
▁hut	-5725
▁hyp	-5726
▁ina	-5727
▁isn	-5728
▁kid	-5729
▁maj	-5730
▁net	-5731
▁non	-5732
▁ple	-5733
▁pop	-5734
▁sin	-5735
▁sly	-5736
▁sob	-5737
▁spl	-5738
▁vig	-5739
▁wra	-5740
These	-5741
acles	-5742
aints	-5743
ashes	-5744
astic	-5745
early	-5746
eding	-5747
eenth	-5748
elled	-5749
ersed	-5750
heard	-5751
house	-5752
icing	-5753
imate	-5754
irons	-5755
lfare	-5756
ories	-5757
otion	-5758
ouisa	-5759
vable	-5760
vived	-5761
▁17—.	-5762
▁June	-5763
▁Lory	-5764
▁Once	-5765
▁Till	-5766
▁Upon	-5767
▁Very	-5768
▁awak	-5769
▁cent	-5770
▁dece	-5771
▁deed	-5772
▁drop	-5773
▁flut	-5774
▁fury	-5775
▁hadn	-5776
▁jeal	-5777
▁lock	-5778
▁mini	-5779
▁nine	-5780
▁oper	-5781
▁owns	-5782
▁peep	-5783
▁rash	-5784
▁roof	-5785
▁rout	-5786
▁rust	-5787
▁seas	-5788
▁shop	-5789
▁snat	-5790
▁soup	-5791
▁sple	-5792
▁star	-5793
▁stro	-5794
▁ugly	-5795
alling	-5796
arling	-5797
ashing	-5798
asting	-5799
either	-5800
ential	-5801
mitted	-5802
olence	-5803
rimony	-5804
uously	-5805
urious	-5806
utiful	-5807
▁Again	-5808
▁Italy	-5809
▁Lodge	-5810
▁North	-5811
▁Pride	-5812
▁Rhine	-5813
▁Shall	-5814
▁artic	-5815
▁based	-5816
▁beast	-5817
▁bowed	-5818
▁brief	-5819
▁cared	-5820
▁cases	-5821
▁catch	-5822
▁decay	-5823
▁dined	-5824
▁disgu	-5825
▁disli	-5826
▁dwelt	-5827
▁faith	-5828
▁fifty	-5829
▁fight	-5830
▁gates	-5831
▁grace	-5832
▁grant	-5833
▁gross	-5834
▁hasty	-5835
▁haunt	-5836
▁inher	-5837
▁later	-5838
▁legal	-5839
▁lucky	-5840
▁noise	-5841
▁numer	-5842
▁older	-5843
▁organ	-5844
▁overp	-5845
▁puppy	-5846
▁recur	-5847
▁sadly	-5848
▁shake	-5849
▁signs	-5850
▁slave	-5851
▁snowy	-5852
▁space	-5853
▁spurn	-5854
▁swear	-5855
▁tones	-5856
▁touch	-5857
▁turns	-5858
▁unequ	-5859
▁whist	-5860
atitude	-5861
aughter	-5862
because	-5863
erences	-5864
ffected	-5865
heshire	-5866
istered	-5867
iveness	-5868
raction	-5869
rawling	-5870
▁August	-5871
▁Moritz	-5872
▁abroad	-5873
▁abrupt	-5874
▁action	-5875
▁amused	-5876
▁bought	-5877
▁bounds	-5878
▁claims	-5879
▁copied	-5880
▁custom	-5881
▁derive	-5882
▁errors	-5883
▁exchan	-5884
▁expose	-5885
▁finger	-5886
▁flight	-5887
▁guinea	-5888
▁handed	-5889
▁honest	-5890
▁houses	-5891
▁inches	-5892
▁integr	-5893
▁lasted	-5894
▁lesson	-5895
▁lovers	-5896
▁mechan	-5897
▁mouths	-5898
▁nerves	-5899
▁oblige	-5900
▁odious	-5901
▁overfl	-5902
▁overth	-5903
▁portra	-5904
▁poured	-5905
▁presum	-5906
▁recogn	-5907
▁repent	-5908
▁rested	-5909
▁serene	-5910
▁shrill	-5911
▁sighed	-5912
▁talent	-5913
▁theirs	-5914
▁throat	-5915
▁varied	-5916
▁viewed	-5917
▁voices	-5918
▁wisest	-5919
hattered	-5920
humoured	-5921
olerable	-5922
standing	-5923
▁Charles	-5924
▁apology	-5925
▁approve	-5926
▁augment	-5927
▁becomes	-5928
▁behaved	-5929
▁blushed	-5930
▁constru	-5931
▁corrupt	-5932
▁descent	-5933
▁deserts	-5934
▁develop	-5935
▁discern	-5936
▁discomp	-5937
▁earlier	-5938
▁enabled	-5939
▁flaming	-5940
▁flowers	-5941
▁gravely	-5942
▁handsom	-5943
▁happier	-5944
▁happily	-5945
▁hellish	-5946
▁immense	-5947
▁imposed	-5948
▁indulge	-5949
▁intense	-5950
▁jealous	-5951
▁justify	-5952
▁limited	-5953
▁oppress	-5954
▁parlour	-5955
▁pattern	-5956
▁pervers	-5957
▁printed	-5958
▁protest	-5959
▁quarrel	-5960
▁reasons	-5961
▁renewal	-5962
▁returns	-5963
▁secured	-5964
▁sending	-5965
▁serpent	-5966
▁solicit	-5967
▁someone	-5968
▁stature	-5969
▁streets	-5970
▁studied	-5971
▁sublime	-5972
▁suggest	-5973
▁travers	-5974
▁trusted	-5975
▁wanting	-5976
▁welfare	-5977
▁whither	-5978
▁Beaufort	-5979
▁Remember	-5980
▁accounts	-5981
▁allusion	-5982
▁arranged	-5983
▁ascended	-5984
▁assisted	-5985
▁awakened	-5986
▁belonged	-5987
▁boundary	-5988
▁brothers	-5989
▁carrying	-5990
▁complain	-5991
▁conclude	-5992
▁conveyed	-5993
▁eligible	-5994
▁entreaty	-5995
▁everyone	-5996
▁feverish	-5997
▁forcibly	-5998
▁friendly	-5999
▁gathered	-6000
▁laughter	-6001
▁learning	-6002
▁lobsters	-6003
▁misunder	-6004
▁moderate	-6005
▁numerous	-6006
▁peaceful	-6007
▁practice	-6008
▁purchase	-6009
▁quarrell	-6010
▁raptures	-6011
▁reaching	-6012
▁reminded	-6013
▁selected	-6014
▁shocking	-6015
▁singular	-6016
▁stronger	-6017
▁syllable	-6018
▁tenderly	-6019
▁trifling	-6020
▁troubled	-6021
▁withdrew	-6022
▁wondrous	-6023
▁Christmas	-6024
▁Presently	-6025
▁accepting	-6026
▁admirable	-6027
▁adversary	-6028
▁available	-6029
▁carriages	-6030
▁cherished	-6031
▁childhood	-6032
▁commenced	-6033
▁conceited	-6034
▁deference	-6035
▁disadvant	-6036
▁excessive	-6037
▁exquisite	-6038
▁flattered	-6039
▁fulfilled	-6040
▁hesitated	-6041
▁imaginary	-6042
▁intending	-6043
▁justified	-6044
▁malignity	-6045
▁materials	-6046
▁multitude	-6047
▁patroness	-6048
▁prejudice	-6049
▁principle	-6050
▁professor	-6051
▁respected	-6052
▁struggled	-6053
▁suffering	-6054
▁suggested	-6055
▁swallowed	-6056
▁travelled	-6057
▁uncertain	-6058
▁calculated	-6059
▁civilities	-6060
▁collecting	-6061
▁conception	-6062
▁consistent	-6063
▁dependence	-6064
▁extinguish	-6065
▁gratefully	-6066
▁gratifying	-6067
▁laboratory	-6068
▁precipices	-6069
▁protection	-6070
▁tenderness	-6071
▁travelling	-6072
▁tremendous	-6073
▁unaffected	-6074
▁university	-6075
▁whatsoever	-6076
▁Gracechurch	-6077
▁discoveries	-6078
▁distressing	-6079
▁embarrassed	-6080
▁encouraging	-6081
▁performance	-6082
▁professions	-6083
▁voluntarily	-6084
▁accidentally	-6085
▁characterist	-6086
▁commencement	-6087
▁commendation	-6088
▁congratulate	-6089
▁independence	-6090
▁intellectual	-6091
▁neighbouring	-6092
▁restrictions	-6093
▁satisfactory	-6094
▁unreasonable	-6095
▁inconvenience	-6096
▁mortification	-6097
▁correspondence	-6098
▁disapprobation	-6099
.2	-6100
.4	-6101
.5	-6102
15	-6103
41	-6104
GH	-6105
ID	-6106
SC	-6107
TY	-6108
av	-6109
lo	-6110
▁’	-6111
--“	-6112
.2.	-6113
.4.	-6114
.5.	-6115
.6.	-6116
.8.	-6117
ACH	-6118
ATI	-6119
BUT	-6120
CEN	-6121
Don	-6122
GHT	-6123
HAT	-6124
IND	-6125
IRE	-6126
IVE	-6127
OSE	-6128
Tis	-6129
ams	-6130
bre	-6131
cle	-6132
cup	-6133
duc	-6134
ees	-6135
eur	-6136
get	-6137
had	-6138
hem	-6139
ids	-6140
ims	-6141
isc	-6142
isy	-6143
itc	-6144
lap	-6145
met	-6146
nal	-6147
pig	-6148
pla	-6149
two	-6150
unk	-6151
▁11	-6152
▁19	-6153
▁27	-6154
▁90	-6155
▁Ah	-6156
▁BE	-6157
▁EB	-6158
▁EX	-6159
▁Or	-6160
▁PG	-6161
▁Qu	-6162
▁RI	-6163
▁ST	-6164
▁TO	-6165
From	-6166
Pray	-6167
SCII	-6168
Such	-6169
TIES	-6170
VIII	-6171
Will	-6172
ales	-6173
arty	-6174
athi	-6175
blem	-6176
emed	-6177
erms	-6178
hand	-6179
icha	-6180
itia	-6181
itle	-6182
izon	-6183
lege	-6184
lius	-6185
look	-6186
more	-6187
oded	-6188
orum	-6189
rice	-6190
rity	-6191
such	-6192
them	-6193
then	-6194
▁BRE	-6195
▁Des	-6196
▁INC	-6197
▁IND	-6198
▁Jur	-6199
▁Lob	-6200
▁Mad	-6201
▁NOT	-6202
▁Nay	-6203
▁New	-6204
▁Red	-6205
▁Roy	-6206
▁Soo	-6207
▁Use	-6208
▁Was	-6209
▁awe	-6210
▁ber	-6211
▁cel	-6212
▁cla	-6213
▁egg	-6214
▁fed	-6215
▁fra	-6216
▁gru	-6217
▁imb	-6218
▁jew	-6219
▁lin	-6220
▁pil	-6221
▁rob	-6222
▁tid	-6223
▁unb	-6224
▁vic	-6225
----”	-6226
ATION	-6227
After	-6228
Alice	-6229
CENSE	-6230
IRECT	-6231
Plain	-6232
Thank	-6233
Which	-6234
Yours	-6235
adict	-6236
adise	-6237
after	-6238
agger	-6239
asing	-6240
cency	-6241
civil	-6242
cribe	-6243
cting	-6244
ellow	-6245
enary	-6246
erred	-6247
etite	-6248
force	-6249
ghorn	-6250
icule	-6251
itled	-6252
licit	-6253
orous	-6254
otent	-6255
stery	-6256
ulate	-6257
ulted	-6258
urate	-6259
uries	-6260
woman	-6261
xford	-6262
▁FULL	-6263
▁Germ	-6264
▁LIAB	-6265
▁Nove	-6266
▁THAT	-6267
▁adop	-6268
▁alas	-6269
▁arts	-6270
▁base	-6271
▁bend	-6272
▁bold	-6273
▁deri	-6274
▁dial	-6275
▁econ	-6276
▁gate	-6277
▁gest	-6278
▁gift	-6279
▁hunt	-6280
▁joys	-6281
▁kitc	-6282
▁lawn	-6283
▁ming	-6284
▁murm	-6285
▁noon	-6286
▁obey	-6287
▁pert	-6288
▁plun	-6289
▁pour	-6290
▁pure	-6291
▁rang	-6292
▁sang	-6293
▁secl	-6294
▁sees	-6295
▁shel	-6296
▁stra	-6297
▁subd	-6298
▁ungu	-6299
▁unne	-6300
▁unso	-6301
▁unus	-6302
▁vest	-6303
▁void	-6304
▁wilf	-6305
▁wine	-6306
▁wore	-6307
▁worm	-6308
TRIBUT	-6309
butter	-6310
donate	-6311
ducing	-6312
ements	-6313
etween	-6314
herent	-6315
iation	-6316
irited	-6317
isions	-6318
judice	-6319
lessly	-6320
olding	-6321
priety	-6322
uating	-6323
upport	-6324
utions	-6325
verted	-6326
▁AGREE	-6327
▁ASCII	-6328
▁Corne	-6329
▁EBOOK	-6330
▁James	-6331
▁Lakes	-6332
▁RIGHT	-6333
▁START	-6334
▁Swift	-6335
▁Terms	-6336
▁accum	-6337
▁accus	-6338
▁cheek	-6339
▁class	-6340
▁corps	-6341
▁costs	-6342
▁dilig	-6343
▁ebook	-6344
▁ended	-6345
▁error	-6346
▁feels	-6347
▁finer	-6348
▁flirt	-6349
▁floor	-6350
▁frank	-6351
▁frown	-6352
▁knelt	-6353
▁privi	-6354
▁raise	-6355
▁rough	-6356
▁rules	-6357
▁seize	-6358
▁stock	-6359
▁stole	-6360
▁tarts	-6361
▁teach	-6362
▁trade	-6363
▁unres	-6364
▁waste	-6365
alified	-6366
aration	-6367
atively	-6368
ensions	-6369
erially	-6370
ication	-6371
iciency	-6372
ilation	-6373
itating	-6374
lighted	-6375
onsider	-6376
rietary	-6377
▁BREACH	-6378
▁Except	-6379
▁France	-6380
▁Hearts	-6381
▁Lizard	-6382
▁Louisa	-6383
▁accuse	-6384
▁adding	-6385
▁amount	-6386
▁arisen	-6387
▁banish	-6388
▁befall	-6389
▁charms	-6390
▁coarse	-6391
▁county	-6392
▁coward	-6393
▁cursed	-6394
▁deadly	-6395
▁dearly	-6396
▁deject	-6397
▁denied	-6398
▁devote	-6399
▁domain	-6400
▁doomed	-6401
▁energy	-6402
▁enumer	-6403
▁excite	-6404
▁forest	-6405
▁gather	-6406
▁guided	-6407
▁incess	-6408
▁injure	-6409
▁injury	-6410
▁insist	-6411
▁invite	-6412
▁judged	-6413
▁judges	-6414
▁landed	-6415
▁loudly	-6416
▁missed	-6417
▁needed	-6418
▁pepper	-6419
▁perish	-6420
▁permit	-6421
▁placid	-6422
▁recess	-6423
▁refres	-6424
▁reveal	-6425
▁rivers	-6426
▁scream	-6427
▁series	-6428
▁solely	-6429
▁soothe	-6430
▁splend	-6431
▁stared	-6432
▁tables	-6433
▁thence	-6434
▁unprot	-6435
▁vacant	-6436
▁volume	-6437
▁widest	-6438
atisfied	-6439
▁Another	-6440
▁DAMAGES	-6441
▁LICENSE	-6442
▁Leghorn	-6443
▁Lobster	-6444
▁Royalty	-6445
▁Several	-6446
▁Vanilla	-6447
▁arising	-6448
▁assumed	-6449
▁authors	-6450
▁berries	-6451
▁breathe	-6452
▁briefly	-6453
▁caution	-6454
▁cleared	-6455
▁contact	-6456
▁courtes	-6457
▁cruelty	-6458
▁damages	-6459
▁darling	-6460
▁decline	-6461
▁defects	-6462
▁defence	-6463
▁deliber	-6464
▁deliver	-6465
▁element	-6466
▁enchant	-6467
▁examine	-6468
▁exposed	-6469
▁failure	-6470
▁fainted	-6471
▁fearing	-6472
▁federal	-6473
▁grounds	-6474
▁holding	-6475
▁horizon	-6476
▁horrors	-6477
▁include	-6478
▁infancy	-6479
▁injured	-6480
▁kitchen	-6481
▁leading	-6482
▁letting	-6483
▁liberal	-6484
▁lighted	-6485
▁masters	-6486
▁militia	-6487
▁mockery	-6488
▁notwith	-6489
▁novelty	-6490
▁opposed	-6491
▁players	-6492
▁preserv	-6493
▁prolong	-6494
▁provoke	-6495
▁rapture	-6496
▁refrain	-6497
▁refresh	-6498
▁regions	-6499
▁relates	-6500
▁reproof	-6501
▁revived	-6502
▁ridicul	-6503
▁secrets	-6504
▁sharing	-6505
▁showing	-6506
▁singing	-6507
▁soothed	-6508
▁sounded	-6509
▁sustain	-6510
▁teasing	-6511
▁uncivil	-6512
▁viewing	-6513
▁Bingleys	-6514
▁Cheshire	-6515
▁November	-6516
▁WARRANTY	-6517
▁alarming	-6518
▁allowing	-6519
▁announce	-6520
▁appetite	-6521
▁betrayed	-6522
▁calmness	-6523
▁chemical	-6524
▁computer	-6525
▁delights	-6526
▁delirium	-6527
▁detested	-6528
▁dialogue	-6529
▁disguise	-6530
▁distrust	-6531
▁enjoying	-6532
▁entailed	-6533
▁environs	-6534
▁exposing	-6535
▁extended	-6536
▁fancying	-6537
▁farewell	-6538
▁fiendish	-6539
▁gigantic	-6540
▁glorious	-6541
▁grandeur	-6542
▁incident	-6543
▁majestic	-6544
▁mildness	-6545
▁mournful	-6546
▁peasants	-6547
▁pressing	-6548
▁proposed	-6549
▁rapidity	-6550
▁recovery	-6551
▁rejected	-6552
▁relating	-6553
▁repaired	-6554
▁resource	-6555
▁ridicule	-6556
▁secondly	-6557
▁separate	-6558
▁shoulder	-6559
▁sneezing	-6560
▁startled	-6561
▁studying	-6562
▁summoned	-6563
▁throwing	-6564
▁treasure	-6565
▁unnecess	-6566
▁unworthy	-6567
interested	-6568
upportable	-6569
▁Christian	-6570
▁Collinses	-6571
▁Cornelius	-6572
▁DISTRIBUT	-6573
▁Donations	-6574
▁Everybody	-6575
▁Prejudice	-6576
▁abilities	-6577
▁apprehend	-6578
▁beholding	-6579
▁computers	-6580
▁confident	-6581
▁consisted	-6582
▁contrived	-6583
▁countries	-6584
▁dangerous	-6585
▁depressed	-6586
▁destroyer	-6587
▁dissipate	-6588
▁engrossed	-6589
▁extensive	-6590
▁fortitude	-6591
▁hardships	-6592
▁incidents	-6593
▁inquiring	-6594
▁instances	-6595
▁integrity	-6596
▁intervals	-6597
▁languages	-6598
▁liability	-6599
▁matrimony	-6600
▁mercenary	-6601
▁penetrate	-6602
▁preserved	-6603
▁promising	-6604
▁promoting	-6605
▁prospects	-6606
▁provision	-6607
▁purposely	-6608
▁reasoning	-6609
▁remainder	-6610
▁scattered	-6611
▁sentences	-6612
▁separated	-6613
▁shoulders	-6614
▁specified	-6615
▁substance	-6616
▁sustained	-6617
▁traversed	-6618
▁unguarded	-6619
▁WARRANTIES	-6620
▁abominable	-6621
▁acceptable	-6622
▁acceptance	-6623
▁accordance	-6624
▁cheerfully	-6625
▁complaints	-6626
▁completion	-6627
▁containing	-6628
▁contradict	-6629
▁describing	-6630
▁desolation	-6631
▁diffidence	-6632
▁disclaimer	-6633
▁forgetting	-6634
▁infinitely	-6635
▁insensible	-6636
▁loveliness	-6637
▁materially	-6638
▁mortifying	-6639
▁motionless	-6640
▁obligation	-6641
▁occasioned	-6642
▁reasonably	-6643
▁references	-6644
▁registered	-6645
▁restrained	-6646
▁suppressed	-6647
▁threatened	-6648
▁Redistribut	-6649
▁attentively	-6650
▁attractions	-6651
▁communicate	-6652
▁declaration	-6653
▁displeasure	-6654
▁exclamation	-6655
▁executioner	-6656
▁forbearance	-6657
▁intolerable	-6658
▁perpetually	-6659
▁presumption	-6660
▁prominently	-6661
▁selfishness	-6662
▁sensibility	-6663
▁supposition	-6664
▁twelvemonth	-6665
▁unhappiness	-6666
▁unprotected	-6667
▁unwillingly	-6668
▁consequences	-6669
▁considerably	-6670
▁instructions	-6671
▁perverseness	-6672
▁philosophers	-6673
▁consciousness	-6674
▁conversations	-6675
▁entertainment	-6676
▁establishment	-6677
▁insupportable	-6678
▁opportunities	-6679
▁affectionately	-6680
▁electronically	-6681
▁accomplishments	-6682
▁notwithstanding	-6683
).	-6684
..	-6685
St	-6686
US	-6687
bb	-6688
fe	-6689
ky	-6690
ox	-6691
’,	-6692
!_”	-6693
CHA	-6694
Her	-6695
OND	-6696
VII	-6697
Yet	-6698
ari	-6699
atl	-6700
bye	-6701
cal	-6702
con	-6703
enc	-6704
etr	-6705
fit	-6706
fty	-6707
hec	-6708
ili	-6709
ils	-6710
isk	-6711
isp	-6712
may	-6713
nam	-6714
nel	-6715
ohn	-6716
ras	-6717
rep	-6718
rer	-6719
tem	-6720
thy	-6721
ugh	-6722
ugn	-6723
umn	-6724
zed	-6725
▁12	-6726
▁13	-6727
▁14	-6728
▁16	-6729
▁Pe	-6730
▁Us	-6731
▁ce	-6732
▁gn	-6733
▁ye	-6734
...”	-6735
Alas	-6736
Eliz	-6737
Just	-6738
Take	-6739
aced	-6740
acqu	-6741
aunt	-6742
bery	-6743
cile	-6744
cles	-6745
cont	-6746
eled	-6747
elly	-6748
even	-6749
ewis	-6750
felt	-6751
fted	-6752
head	-6753
iano	-6754
ient	-6755
isit	-6756
maid	-6757
mean	-6758
mind	-6759
mnip	-6760
noon	-6761
nost	-6762
oned	-6763
pers	-6764
rier	-6765
sist	-6766
uced	-6767
uity	-6768
vice	-6769
view	-6770
vill	-6771
▁200	-6772
▁Any	-6773
▁END	-6774
▁Has	-6775
▁Per	-6776
▁Wer	-6777
▁XLI	-6778
▁asc	-6779
▁asp	-6780
▁box	-6781
▁buy	-6782
▁coo	-6783
▁dig	-6784
▁dir	-6785
▁dog	-6786
▁ess	-6787
▁fid	-6788
▁fru	-6789
▁gre	-6790
▁irr	-6791
▁iss	-6792
▁jur	-6793
▁mid	-6794
▁nar	-6795
▁nay	-6796
▁nib	-6797
▁pin	-6798
▁por	-6799
▁pul	-6800
▁rad	-6801
▁rat	-6802
▁ren	-6803
▁rub	-6804
▁shy	-6805
▁sli	-6806
▁sul	-6807
▁ted	-6808
▁tel	-6809
▁viv	-6810
▁vow	-6811
Every	-6812
Felix	-6813
Shall	-6814
acked	-6815
anche	-6816
anter	-6817
ators	-6818
avour	-6819
bling	-6820
could	-6821
cript	-6822
ctive	-6823
enetr	-6824
enial	-6825
ensed	-6826
forte	-6827
gelic	-6828
gings	-6829
hable	-6830
hetic	-6831
iated	-6832
ibule	-6833
icism	-6834
idden	-6835
ience	-6836
ifies	-6837
inity	-6838
irect	-6839
isher	-6840
istry	-6841
itute	-6842
liest	-6843
never	-6844
oined	-6845
omple	-6846
ookah	-6847
orned	-6848
ospit	-6849
othec	-6850
ounix	-6851
press	-6852
rious	-6853
rough	-6854
ulled	-6855
uming	-6856
urbed	-6857
urity	-6858
utumn	-6859
vance	-6860
venue	-6861
▁Alps	-6862
▁Anne	-6863
▁Brit	-6864
▁Capt	-6865
▁Cham	-6866
▁Dear	-6867
▁Does	-6868
▁Gree	-6869
▁Hear	-6870
▁Jura	-6871
▁Matl	-6872
▁Much	-6873
▁Park	-6874
▁Serv	-6875
▁Take	-6876
▁Were	-6877
▁West	-6878
▁Wond	-6879
▁ages	-6880
▁airs	-6881
▁alac	-6882
▁aval	-6883
▁avow	-6884
▁blam	-6885
▁bord	-6886
▁burd	-6887
▁cake	-6888
▁canv	-6889
▁coat	-6890
▁coll	-6891
▁dinn	-6892
▁disk	-6893
▁eggs	-6894
▁empt	-6895
▁enra	-6896
▁envy	-6897
▁exas	-6898
▁fare	-6899
▁hack	-6900
▁hill	-6901
▁inef	-6902
▁inev	-6903
▁keen	-6904
▁kill	-6905
▁knee	-6906
▁lies	-6907
▁meat	-6908
▁mend	-6909
▁miss	-6910
▁nour	-6911
▁palp	-6912
▁pang	-6913
▁pile	-6914
▁pist	-6915
▁poet	-6916
▁rect	-6917
▁shru	-6918
▁sinc	-6919
▁sobs	-6920
▁swam	-6921
▁tide	-6922
▁ties	-6923
▁ting	-6924
▁tore	-6925
▁torn	-6926
▁type	-6927
▁unav	-6928
▁unqu	-6929
▁unsu	-6930
▁vary	-6931
▁wear	-6932
▁worn	-6933
▁writ	-6934
aching	-6935
arrant	-6936
atched	-6937
athies	-6938
cribed	-6939
ctures	-6940
earing	-6941
elcome	-6942
ensity	-6943
equate	-6944
estial	-6945
icated	-6946
ichael	-6947
idable	-6948
idding	-6949
lihood	-6950
minded	-6951
oncern	-6952
orable	-6953
ounded	-6954
parall	-6955
places	-6956
retion	-6957
uckily	-6958
ulsive	-6959
ulting	-6960
urable	-6961
ursday	-6962
ushing	-6963
▁Creat	-6964
▁Great	-6965
▁Jones	-6966
▁Lewis	-6967
▁Since	-6968
▁Still	-6969
▁Tears	-6970
▁Would	-6971
▁Young	-6972
▁aband	-6973
▁abide	-6974
▁achie	-6975
▁alike	-6976
▁annoy	-6977
▁awake	-6978
▁awful	-6979
▁beach	-6980
▁bleak	-6981
▁bride	-6982
▁brink	-6983
▁built	-6984
▁burnt	-6985
▁clasp	-6986
▁cling	-6987
▁dated	-6988
▁drops	-6989
▁everl	-6990
▁exile	-6991
▁exper	-6992
▁exult	-6993
▁files	-6994
▁fills	-6995
▁final	-6996
▁grunt	-6997
▁illum	-6998
▁image	-6999
▁ingen	-7000
▁innum	-7001
▁irres	-7002
▁lakes	-7003
▁loath	-7004
▁lofty	-7005
▁mixed	-7006
▁notes	-7007
▁ornam	-7008
▁overt	-7009
▁owing	-7010
▁piano	-7011
▁plent	-7012
▁print	-7013
▁roots	-7014
▁route	-7015
▁scope	-7016
▁score	-7017
▁scorn	-7018
▁skill	-7019
▁solid	-7020
▁steep	-7021
▁stick	-7022
▁stiff	-7023
▁sting	-7024
▁store	-7025
▁stuff	-7026
▁trick	-7027
▁unfit	-7028
▁unite	-7029
▁vener	-7030
▁widow	-7031
▁wreck	-7032
Wickham	-7033
changel	-7034
fectual	-7035
ildered	-7036
itional	-7037
ittance	-7038
omplete	-7039
overing	-7040
reading	-7041
umbling	-7042
uration	-7043
version	-7044
▁Advent	-7045
▁Assist	-7046
▁Begone	-7047
▁Little	-7048
▁Nature	-7049
▁Oxford	-7050
▁Unless	-7051
▁Werter	-7052
▁acting	-7053
▁affirm	-7054
▁amazed	-7055
▁amends	-7056
▁ascend	-7057
▁assume	-7058
▁behalf	-7059
▁breast	-7060
▁butter	-7061
▁captiv	-7062
▁closer	-7063
▁coffin	-7064
▁darted	-7065
▁dearer	-7066
▁deemed	-7067
▁defend	-7068
▁demean	-7069
▁denial	-7070
▁detain	-7071
▁double	-7072
▁eluded	-7073
▁enable	-7074
▁endued	-7075
▁extrem	-7076
▁faults	-7077
▁feeble	-7078
▁filthy	-7079
▁fixing	-7080
▁flowed	-7081
▁flying	-7082
▁footst	-7083
▁forbid	-7084
▁gaiety	-7085
▁gazing	-7086
▁gently	-7087
▁groans	-7088
▁hearts	-7089
▁heroes	-7090
▁hoarse	-7091
▁hookah	-7092
▁hungry	-7093
▁images	-7094
▁infamy	-7095
▁insurm	-7096
▁killed	-7097
▁league	-7098
▁lessen	-7099
▁linked	-7100
▁livery	-7101
▁merits	-7102
▁myster	-7103
▁nicely	-7104
▁nights	-7105
▁novels	-7106
▁occupy	-7107
▁oversp	-7108
▁pitied	-7109
▁points	-7110
▁poison	-7111
▁polite	-7112
▁punish	-7113
▁rabbit	-7114
▁reader	-7115
▁reconc	-7116
▁repugn	-7117
▁resign	-7118
▁review	-7119
▁revive	-7120
▁rugged	-7121
▁ruined	-7122
▁shaken	-7123
▁shores	-7124
▁shriek	-7125
▁sights	-7126
▁simply	-7127
▁sleepy	-7128
▁sprang	-7129
▁strike	-7130
▁tasted	-7131
▁tastes	-7132
▁telesc	-7133
▁thinks	-7134
▁trifle	-7135
▁unacqu	-7136
▁uncons	-7137
▁vanish	-7138
▁verses	-7139
▁warmed	-7140
▁waving	-7141
▁whence	-7142
ceptible	-7143
cription	-7144
othecary	-7145
tempered	-7146
▁Addison	-7147
▁Between	-7148
▁Captain	-7149
▁Matlock	-7150
▁Michael	-7151
▁Neither	-7152
▁Without	-7153
▁acquire	-7154
▁acutely	-7155
▁agonies	-7156
▁amusing	-7157
▁attacks	-7158
▁bearing	-7159
▁belongs	-7160
▁benefic	-7161
▁candour	-7162
▁caprice	-7163
▁censure	-7164
▁charged	-7165
▁cheered	-7166
▁clouded	-7167
▁compose	-7168
▁concili	-7169
▁confide	-7170
▁consumm	-7171
▁counter	-7172
▁current	-7173
▁dangers	-7174
▁decorum	-7175
▁deepest	-7176
▁designs	-7177
▁desires	-7178
▁despise	-7179
▁dischar	-7180
▁discour	-7181
▁dispute	-7182
▁divided	-7183
▁draught	-7184
▁dungeon	-7185
▁economy	-7186
▁ensuing	-7187
▁exhibit	-7188
▁extract	-7189
▁failing	-7190
▁feature	-7191
▁fellows	-7192
▁figures	-7193
▁forming	-7194
▁glacier	-7195
▁haunted	-7196
▁inflict	-7197
▁inspire	-7198
▁joining	-7199
▁jumping	-7200
▁lecture	-7201
▁managed	-7202
▁message	-7203
▁nearest	-7204
▁offence	-7205
▁painted	-7206
▁peasant	-7207
▁placing	-7208
▁predict	-7209
▁propose	-7210
▁prudent	-7211
▁raising	-7212
▁rambles	-7213
▁seeming	-7214
▁shaking	-7215
▁shouldn	-7216
▁sinking	-7217
▁sorrows	-7218
▁sources	-7219
▁spurned	-7220
▁stately	-7221
▁steward	-7222
▁subsist	-7223
▁summits	-7224
▁talents	-7225
▁tedious	-7226
▁threats	-7227
▁tidings	-7228
▁treacle	-7229
▁twinkle	-7230
▁unequal	-7231
▁visions	-7232
▁yielded	-7233
▁Thursday	-7234
▁absolute	-7235
▁acquired	-7236
▁alacrity	-7237
▁attempts	-7238
▁balanced	-7239
▁believes	-7240
▁benefact	-7241
▁breaking	-7242
▁breathed	-7243
▁building	-7244
▁cautious	-7245
▁changing	-7246
▁coloured	-7247
▁combined	-7248
▁compared	-7249
▁cottages	-7250
▁courtesy	-7251
▁deserted	-7252
▁despised	-7253
▁disaster	-7254
▁disliked	-7255
▁diverted	-7256
▁doubtful	-7257
▁entitled	-7258
▁fatigued	-7259
▁firmness	-7260
▁flamingo	-7261
▁frowning	-7262
▁helpless	-7263
▁humility	-7264
▁identify	-7265
▁impenetr	-7266
▁indirect	-7267
▁indulged	-7268
▁infinite	-7269
▁insolent	-7270
▁inspired	-7271
▁involunt	-7272
▁listener	-7273
▁loathing	-7274
▁lodgings	-7275
▁measures	-7276
▁midnight	-7277
▁minutely	-7278
▁obliging	-7279
▁offering	-7280
▁ordinary	-7281
▁overlook	-7282
▁portrait	-7283
▁precious	-7284
▁pretence	-7285
▁profound	-7286
▁prognost	-7287
▁promises	-7288
▁prudence	-7289
▁publicly	-7290
▁punctual	-7291
▁pursuing	-7292
▁pursuits	-7293
▁recalled	-7294
▁relative	-7295
▁restless	-7296
▁revolved	-7297
▁rewarded	-7298
▁screamed	-7299
▁sensibly	-7300
▁severity	-7301
▁sickened	-7302
▁sickness	-7303
▁soothing	-7304
▁sparkled	-7305
▁spending	-7306
▁stopping	-7307
▁straight	-7308
▁struggle	-7309
▁suppress	-7310
▁surmount	-7311
▁symptoms	-7312
▁tortured	-7313
▁tortures	-7314
▁unfavour	-7315
▁unparall	-7316
▁visiting	-7317
▁vivacity	-7318
rehensible	-7319
▁Chamounix	-7320
▁Quadrille	-7321
▁accidents	-7322
▁affording	-7323
▁afternoon	-7324
▁alternate	-7325
▁apologize	-7326
▁appalling	-7327
▁ascertain	-7328
▁assertion	-7329
▁augmented	-7330
▁avalanche	-7331
▁belonging	-7332
▁celestial	-7333
▁deficient	-7334
▁dejection	-7335
▁deliverer	-7336
▁dependent	-7337
▁deserving	-7338
▁desperate	-7339
▁dismissed	-7340
▁elsewhere	-7341
▁exchanged	-7342
▁exertions	-7343
▁guiltless	-7344
▁hereafter	-7345
▁indignant	-7346
▁interview	-7347
▁intrusion	-7348
▁loathsome	-7349
▁miserably	-7350
▁momentary	-7351
▁mortified	-7352
▁narration	-7353
▁narrative	-7354
▁perpetual	-7355
▁persisted	-7356
▁plentiful	-7357
▁preferred	-7358
▁provoking	-7359
▁requiring	-7360
▁restraint	-7361
▁shattered	-7362
▁shuddered	-7363
▁simpleton	-7364
▁sincerity	-7365
▁strangely	-7366
▁tormented	-7367
▁traveller	-7368
▁twinkling	-7369
▁unconcern	-7370
▁vestibule	-7371
▁voluntary	-7372
▁witnessed	-7373
▁Adventures	-7374
▁Wonderland	-7375
▁addressing	-7376
▁affability	-7377
▁apparition	-7378
▁attendance	-7379
▁bewildered	-7380
▁breathless	-7381
▁constantly	-7382
▁convenient	-7383
▁conversing	-7384
▁discretion	-7385
▁discussion	-7386
▁eighteenth	-7387
▁estimation	-7388
▁excellence	-7389
▁explaining	-7390
▁formidable	-7391
▁habitation	-7392
▁incomplete	-7393
▁incredible	-7394
▁inducement	-7395
▁likelihood	-7396
▁passionate	-7397
▁pianoforte	-7398
▁pleasanter	-7399
▁previously	-7400
▁procession	-7401
▁professors	-7402
▁prosperity	-7403
▁recovering	-7404
▁repetition	-7405
▁ridiculous	-7406
▁suspicions	-7407
▁thoroughly	-7408
▁travellers	-7409
▁anticipated	-7410
▁appearances	-7411
▁complacency	-7412
▁contentment	-7413
▁convenience	-7414
▁cultivation	-7415
▁disgraceful	-7416
▁earnestness	-7417
▁employments	-7418
▁enumerating	-7419
▁everlasting	-7420
▁examination	-7421
▁impropriety	-7422
▁incessantly	-7423
▁incredulous	-7424
▁ineffectual	-7425
▁innumerable	-7426
▁instruction	-7427
▁intelligent	-7428
▁introducing	-7429
▁overwhelmed	-7430
▁pretensions	-7431
▁quarrelling	-7432
▁refreshment	-7433
▁restoration	-7434
▁sympathised	-7435
▁unconscious	-7436
▁unnecessary	-7437
▁carelessness	-7438
▁complaisance	-7439
▁condescended	-7440
▁disadvantage	-7441
▁exclamations	-7442
▁explanations	-7443
▁perseverance	-7444
▁presentation	-7445
▁recollecting	-7446
▁triumphantly	-7447
▁unacquainted	-7448
▁unparalleled	-7449
▁contemplation	-7450
▁disinterested	-7451
▁insensibility	-7452
▁unfortunately	-7453
▁insurmountable	-7454
▁respectability	-7455
▁representations	-7456
!—	-7457
.]	-7458
.—	-7459
18	-7460
22	-7461
6,	-7462
?—	-7463
AD	-7464
De	-7465
FU	-7466
GE	-7467
Go	-7468
Re	-7469
Sp	-7470
^{	-7471
bl	-7472
wr	-7473
yl	-7474
?--	-7475
ICE	-7476
ILL	-7477
JUD	-7478
Nay	-7479
OSS	-7480
Tru	-7481
_,’	-7482
_—’	-7483
add	-7484
aid	-7485
ais	-7486
alê	-7487
ata	-7488
auc	-7489
ays	-7490
bey	-7491
dig	-7492
edy	-7493
eps	-7494
ese	-7495
esh	-7496
gra	-7497
gre	-7498
gue	-7499
za	-7500
ich	-7501
ike	-7502
imm	-7503
ipp	-7504
lew	-7505
mar	-7506
nge	-7507
pan	-7508
pre	-7509
pri	-7510
rec	-7511
rob	-7512
son	-7513
tel	-7514
uce	-7515
uly	-7516
upt	-7517
voc	-7518
who	-7519
www	-7520
▁10	-7521
▁21	-7522
▁24	-7523
▁3.	-7524
▁60	-7525
▁CH	-7526
▁Cr	-7527
▁Es	-7528
▁IV	-7529
▁Sh	-7530
▁VI	-7531
▁XI	-7532
▁pi	-7533
▁ze	-7534
▁“’	-7535
Call	-7536
Hold	-7537
Only	-7538
Poor	-7539
Prot	-7540
Some	-7541
Tell	-7542
True	-7543
abel	-7544
aces	-7545
atig	-7546
ault	-7547
back	-7548
bers	-7549
bert	-7550
bish	-7551
enly	-7552
erce	-7553
eric	-7554
eton	-7555
face	-7556
fess	-7557
fish	-7558
gent	-7559
give	-7560
good	-7561
grim	-7562
hold	-7563
hole	-7564
iant	-7565
incl	-7566
inds	-7567
inqu	-7568
inue	-7569
itar	-7570
itor	-7571
izes	-7572
lebr	-7573
lsus	-7574
nder	-7575
nony	-7576
omen	-7577
onds	-7578
oots	-7579
oses	-7580
ouch	-7581
pigs	-7582
prop	-7583
rant	-7584
rawn	-7585
reci	-7586
seen	-7587
sent	-7588
ters	-7589
tery	-7590
thly	-7591
time	-7592
tree	-7593
ulty	-7594
umbs	-7595
wood	-7596
ylum	-7597
▁Ann	-7598
▁Bar	-7599
▁Eur	-7600
▁Imp	-7601
▁Ire	-7602
▁Mag	-7603
▁Off	-7604
▁Ref	-7605
▁Res	-7606
▁Sha	-7607
▁Vol	-7608
▁XII	-7609
▁aim	-7610
▁avo	-7611
▁awa	-7612
▁ben	-7613
▁dil	-7614
▁dup	-7615
▁elb	-7616
▁lap	-7617
▁lik	-7618
▁liv	-7619
▁nic	-7620
▁obe	-7621
▁obl	-7622
▁obv	-7623
▁oft	-7624
▁pha	-7625
▁ram	-7626
▁sed	-7627
▁tos	-7628
▁tur	-7629
▁ult	-7630
▁vir	-7631
▁wha	-7632
▁wow	-7633
▁yer	-7634
...”,	-7635
Never	-7636
Right	-7637
Where	-7638
While	-7639
about	-7640
alais	-7641
alêve	-7642
anity	-7643
arrow	-7644
assin	-7645
astro	-7646
atics	-7647
aucus	-7648
bbery	-7649
cible	-7650
creat	-7651
eches	-7652
ental	-7653
ernal	-7654
erted	-7655
erver	-7656
forth	-7657
iacal	-7658
ially	-7659
iling	-7660
imble	-7661
inent	-7662
isely	-7663
isive	-7664
itory	-7665
itous	-7666
lieve	-7667
nings	-7668
nonym	-7669
olate	-7670
ology	-7671
ominy	-7672
onely	-7673
onour	-7674
oping	-7675
owned	-7676
poise	-7677
raphy	-7678
rised	-7679
shine	-7680
stant	-7681
stood	-7682
table	-7683
think	-7684
tling	-7685
uance	-7686
ughty	-7687
ulity	-7688
urous	-7689
venza	-7690
ville	-7691
▁Arve	-7692
▁CONT	-7693
▁Clap	-7694
▁Down	-7695
▁Edin	-7696
▁Ever	-7697
▁Four	-7698
▁Happ	-7699
▁John	-7700
▁Lake	-7701
▁Last	-7702
▁List	-7703
▁More	-7704
▁Next	-7705
▁Pers	-7706
▁Prom	-7707
▁Said	-7708
▁Sudd	-7709
▁Time	-7710
▁User	-7711
▁anew	-7712
▁army	-7713
▁asks	-7714
▁bade	-7715
▁bank	-7716
▁bats	-7717
▁behe	-7718
▁bitt	-7719
▁camp	-7720
▁clar	-7721
▁clue	-7722
▁coin	-7723
▁curs	-7724
▁damp	-7725
▁data	-7726
▁debt	-7727
▁defy	-7728
▁dust	-7729
▁fain	-7730
▁file	-7731
▁fits	-7732
▁flat	-7733
▁flew	-7734
▁glow	-7735
▁herb	-7736
▁inan	-7737
▁ingr	-7738
▁lift	-7739
▁ling	-7740
▁maid	-7741
▁mass	-7742
▁meal	-7743
▁mice	-7744
▁musl	-7745
▁nupt	-7746
▁nurs	-7747
▁obso	-7748
▁pace	-7749
▁padd	-7750
▁pant	-7751
▁pars	-7752
▁paws	-7753
▁pole	-7754
▁rein	-7755
▁rely	-7756
▁rent	-7757
▁risk	-7758
▁rode	-7759
▁rush	-7760
▁sand	-7761
▁sect	-7762
▁sell	-7763
▁serm	-7764
▁tiny	-7765
▁undo	-7766
▁warn	-7767
▁wink	-7768
▁zeal	-7769
JUDICE	-7770
Please	-7771
allied	-7772
ampled	-7773
angled	-7774
antial	-7775
artial	-7776
atious	-7777
bishop	-7778
castle	-7779
earest	-7780
ertime	-7781
fessor	-7782
houses	-7783
ifully	-7784
judged	-7785
letter	-7786
little	-7787
llowed	-7788
looked	-7789
ltered	-7790
making	-7791
manent	-7792
nected	-7793
ocking	-7794
ontory	-7795
orting	-7796
ossess	-7797
otence	-7798
owered	-7799
plored	-7800
renity	-7801
rolled	-7802
ronted	-7803
strong	-7804
ticoat	-7805
uctant	-7806
umbent	-7807
umbled	-7808
utable	-7809
vation	-7810
velope	-7811
▁Adieu	-7812
▁Allow	-7813
▁Among	-7814
▁Field	-7815
▁Green	-7816
▁Itali	-7817
▁Mabel	-7818
▁Often	-7819
▁Seven	-7820
▁Spect	-7821
▁Stras	-7822
▁Swiss	-7823
▁Thank	-7824
▁Title	-7825
▁abund	-7826
▁acced	-7827
▁adapt	-7828
▁affli	-7829
▁ample	-7830
▁bears	-7831
▁blows	-7832
▁blush	-7833
▁brain	-7834
▁brave	-7835
▁caves	-7836
▁clean	-7837
▁clock	-7838
▁clung	-7839
▁coars	-7840
▁colle	-7841
▁copse	-7842
▁corre	-7843
▁cough	-7844
▁crash	-7845
▁crush	-7846
▁decre	-7847
▁demon	-7848
▁depra	-7849
▁dirty	-7850
▁disci	-7851
▁disse	-7852
▁dried	-7853
▁drunk	-7854
▁empty	-7855
▁energ	-7856
▁enorm	-7857
▁extin	-7858
▁faire	-7859
▁flesh	-7860
▁fluct	-7861
▁forty	-7862
▁glimm	-7863
▁groan	-7864
▁helps	-7865
▁hints	-7866
▁inatt	-7867
▁indec	-7868
▁indef	-7869
▁joint	-7870
▁keeps	-7871
▁lands	-7872
▁magic	-7873
▁manif	-7874
▁mirac	-7875
▁mould	-7876
▁noisy	-7877
▁novel	-7878
▁omnip	-7879
▁pages	-7880
▁paint	-7881
▁paths	-7882
▁peril	-7883
▁plate	-7884
▁poets	-7885
▁posit	-7886
▁price	-7887
▁prize	-7888
▁produ	-7889
▁prohi	-7890
▁raven	-7891
▁recon	-7892
▁relig	-7893
▁risen	-7894
▁rocks	-7895
▁	-7896
e	-7897
t	-7898
a	-7899
o	-7900
n	-7901
i	-7902
s	-7903
h	-7904
r	-7905
d	-7906
l	-7907
u	-7908
m	-7909
c	-7910
f	-7911
y	-7912
w	-7913
g	-7914
,	-7915
p	-7916
b	-7917
.	-7918
v	-7919
I	-7920
k	-7921
“	-7922
”	-7923
;	-7924
M	-7925
T	-7926
A	-7927
x	-7928
-	-7929
’	-7930
_	-7931
B	-7932
E	-7933
H	-7934
j	-7935
z	-7936
S	-7937
W	-7938
C	-7939
L	-7940
q	-7941
!	-7942
D	-7943
?	-7944
P	-7945
G	-7946
Y	-7947
:	-7948
N	-7949
O	-7950
F	-7951
R	-7952
J	-7953
—	-7954
1	-7955
U	-7956
K	-7957
[	-7958
]	-7959
(	-7960
)	-7961
V	-7962
X	-7963
‘	-7964
*	-7965
4	-7966
2	-7967
8	-7968
Q	-7969
9	-7970
3	-7971
0	-7972
5	-7973
6	-7974
7	-7975
/	-7976
æ	-7977
ê	-7978
•	-7979
$	-7980
'	-7981
^	-7982
{	-7983
}	-7984
à	-7985
#	-7986
%	-7987
é	-7988
Z	-7989
·	-7990
ô	-7991
&	-7992
â	-7993
è	-7994
ù	-7995
œ	-7996
